{
  "version": "1.0",
  "truncation": null,
  "padding": null,
  "added_tokens": [
    {
      "id": 0,
      "content": "<pad>",
      "single_word": false,
      "lstrip": false,
      "rstrip": false,
      "normalized": false,
      "special": true
    },
    {
      "id": 1,
      "content": "<unk>",
      "single_word": false,
      "lstrip": false,
      "rstrip": false,
      "normalized": false,
      "special": true
    },
    {
      "id": 2,
      "content": "<s>",
      "single_word": false,
      "lstrip": false,
      "rstrip": false,
      "normalized": false,
      "special": true
    },
    {
      "id": 3,
      "content": "</s>",
      "single_word": false,
      "lstrip": false,
      "rstrip": false,
      "normalized": false,
      "special": true
    }
  ],
  "normalizer": null,
  "pre_tokenizer": {
    "type": "Whitespace"
  },
  "post_processor": null,
  "decoder": null,
  "model": {
    "type": "BPE",
    "dropout": null,
    "unk_token": "<unk>",
    "continuing_subword_prefix": null,
    "end_of_word_suffix": null,
    "fuse_unk": false,
    "byte_fallback": false,
    "ignore_merges": false,
    "vocab": {
      "<pad>": 0,
      "<unk>": 1,
      "<s>": 2,
      "</s>": 3,
      "A": 4,
      "B": 5,
      "C": 6,
      "D": 7,
      "E": 8,
      "F": 9,
      "G": 10,
      "H": 11,
      "I": 12,
      "J": 13,
      "L": 14,
      "M": 15,
      "N": 16,
      "O": 17,
      "P": 18,
      "Q": 19,
      "R": 20,
      "S": 21,
      "T": 22,
      "U": 23,
      "V": 24,
      "a": 25,
      "b": 26,
      "c": 27,
      "d": 28,
      "e": 29,
      "f": 30,
      "g": 31,
      "h": 32,
      "i": 33,
      "j": 34,
      "k": 35,
      "l": 36,
      "m": 37,
      "n": 38,
      "o": 39,
      "p": 40,
      "q": 41,
      "r": 42,
      "s": 43,
      "t": 44,
      "u": 45,
      "v": 46,
      "w": 47,
      "x": 48,
      "y": 49,
      "z": 50,
      "É": 51,
      "á": 52,
      "ã": 53,
      "ç": 54,
      "é": 55,
      "ê": 56,
      "í": 57,
      "ó": 58,
      "ô": 59,
      "õ": 60,
      "ú": 61,
      "er": 62,
      "de": 63,
      "do": 64,
      "ra": 65,
      "ão": 66,
      "te": 67,
      "qu": 68,
      "da": 69,
      "se": 70,
      "ma": 71,
      "pa": 72,
      "en": 73,
      "es": 74,
      "is": 75,
      "an": 76,
      "to": 77,
      "co": 78,
      "ia": 79,
      "ida": 80,
      "quer": 81,
      "as": 82,
      "não": 83,
      "os": 84,
      "Qu": 85,
      "em": 86,
      "ro": 87,
      "ei": 88,
      "ar": 89,
      "eu": 90,
      "Não": 91,
      "no": 92,
      "ol": 93,
      "or": 94,
      "re": 95,
      "in": 96,
      "um": 97,
      "que": 98,
      "Que": 99,
      "El": 100,
      "tem": 101,
      "ente": 102,
      "gu": 103,
      "po": 104,
      "gente": 105,
      "com": 106,
      "ado": 107,
      "ic": 108,
      "oc": 109,
      "fu": 110,
      "io": 111,
      "so": 112,
      "di": 113,
      "me": 114,
      "per": 115,
      "va": 116,
      "mais": 117,
      "esse": 118,
      "ando": 119,
      "ac": 120,
      "am": 121,
      "ti": 122,
      "des": 123,
      "ocê": 124,
      "Eu": 125,
      "al": 126,
      "el": 127,
      "uma": 128,
      "ís": 129,
      "par": 130,
      "país": 131,
      "bol": 132,
      "iv": 133,
      "mu": 134,
      "ora": 135,
      "pra": 136,
      "rio": 137,
      "sé": 138,
      "só": 139,
      "ter": 140,
      "tra": 141,
      "Ela": 142,
      "tempo": 143,
      "sério": 144,
      "Mas": 145,
      "ara": 146,
      "vida": 147,
      "ej": 148,
      "im": 149,
      "na": 150,
      "nh": 151,
      "pro": 152,
      "tida": 153,
      "ção": 154,
      "tebol": 155,
      "Ele": 156,
      "futebol": 157,
      "vai": 158,
      "partida": 159,
      "De": 160,
      "Você": 161,
      "du": 162,
      "dis": 163,
      "fo": 164,
      "sa": 165,
      "ta": 166,
      "tu": 167,
      "vej": 168,
      "mado": 169,
      "pas": 170,
      "para": 171,
      "eito": 172,
      "eiro": 173,
      "inh": 174,
      "gua": 175,
      "amor": 176,
      "Ma": 177,
      "Ter": 178,
      "fa": 179,
      "gra": 180,
      "ig": 181,
      "dos": 182,
      "ração": 183,
      "quê": 184,
      "dar": 185,
      "coração": 186,
      "queria": 187,
      "emb": 188,
      "iver": 189,
      "vejo": 190,
      "Co": 191,
      "Edu": 192,
      "Mô": 193,
      "be": 194,
      "ch": 195,
      "dia": 196,
      "gr": 197,
      "il": 198,
      "ito": 199,
      "ico": 200,
      "nic": 201,
      "pl": 202,
      "pre": 203,
      "ser": 204,
      "são": 205,
      "sol": 206,
      "tá": 207,
      "você": 208,
      "zer": 209,
      "dec": 210,
      "esper": 211,
      "está": 212,
      "quero": 213,
      "aso": 214,
      "ardo": 215,
      "redi": 216,
      "como": 217,
      "comida": 218,
      "acaso": 219,
      "inheiro": 220,
      "embora": 221,
      "Com": 222,
      "Eduardo": 223,
      "Mônic": 224,
      "Mônica": 225,
      "En": 226,
      "Ide": 227,
      "Para": 228,
      "Tem": 229,
      "ag": 230,
      "ama": 231,
      "bida": 232,
      "der": 233,
      "dinheiro": 234,
      "for": 235,
      "ger": 236,
      "gia": 237,
      "jeito": 238,
      "lá": 239,
      "men": 240,
      "mes": 241,
      "ndo": 242,
      "ois": 243,
      "ogia": 244,
      "pe": 245,
      "pen": 246,
      "pes": 247,
      "tão": 248,
      "vo": 249,
      "via": 250,
      "viver": 251,
      "xa": 252,
      "ça": 253,
      "ído": 254,
      "eria": 255,
      "dor": 256,
      "teger": 257,
      "quan": 258,
      "seu": 259,
      "mas": 260,
      "andar": 261,
      "Queria": 262,
      "ologia": 263,
      "futu": 264,
      "tir": 265,
      "traído": 266,
      "aram": 267,
      "nada": 268,
      "proteger": 269,
      "Devia": 270,
      "distraído": 271,
      "foi": 272,
      "igos": 273,
      "deci": 274,
      "Enquan": 275,
      "Ideologia": 276,
      "futuro": 277,
      "Enquanto": 278,
      "Ac": 279,
      "Al": 280,
      "Be": 281,
      "Ch": 282,
      "Dois": 283,
      "Tre": 284,
      "Vi": 285,
      "bo": 286,
      "ca": 287,
      "cida": 288,
      "fic": 289,
      "gan": 290,
      "gal": 291,
      "ho": 292,
      "har": 293,
      "it": 294,
      "imado": 295,
      "igua": 296,
      "le": 297,
      "lin": 298,
      "meu": 299,
      "nas": 300,
      "ndes": 301,
      "ou": 302,
      "por": 303,
      "sado": 304,
      "sando": 305,
      "tado": 306,
      "ven": 307,
      "vol": 308,
      "ze": 309,
      "água": 310,
      "era": 311,
      "ram": 312,
      "quem": 313,
      "quic": 314,
      "sem": 315,
      "sede": 316,
      "segu": 317,
      "angu": 318,
      "ança": 319,
      "animado": 320,
      "todo": 321,
      "con": 322,
      "eira": 323,
      "novida": 324,
      "repe": 325,
      "inte": 326,
      "povo": 327,
      "comer": 328,
      "ados": 329,
      "sou": 330,
      "sonh": 331,
      "digal": 332,
      "perdi": 333,
      "acar": 334,
      "times": 335,
      "elas": 336,
      "mundo": 337,
      "museu": 338,
      "disso": 339,
      "fome": 340,
      "sabe": 341,
      "pasto": 342,
      "passado": 343,
      "Maio": 344,
      "fazer": 345,
      "grandes": 346,
      "grit": 347,
      "placar": 348,
      "esperança": 349,
      "redite": 350,
      "Comida": 351,
      "Tempo": 352,
      "agados": 353,
      "menos": 354,
      "pensando": 355,
      "decide": 356,
      "Acredite": 357,
      "Alagados": 358,
      "Bebida": 359,
      "Treze": 360,
      "Vidigal": 361,
      "ficar": 362,
      "ganhar": 363,
      "iguais": 364,
      "quicando": 365,
      "novidades": 366,
      "repetir": 367,
      "gritando": 368,
      "Ah": 369,
      "Am": 370,
      "As": 371,
      "Ca": 372,
      "Da": 373,
      "Dia": 374,
      "Dei": 375,
      "Diver": 376,
      "Fu": 377,
      "Fic": 378,
      "Meu": 379,
      "Na": 380,
      "No": 381,
      "Nas": 382,
      "Num": 383,
      "Pra": 384,
      "Ser": 385,
      "Sem": 386,
      "Sou": 387,
      "To": 388,
      "Um": 389,
      "Vam": 390,
      "Viv": 391,
      "ap": 392,
      "ava": 393,
      "bal": 394,
      "ble": 395,
      "cer": 396,
      "can": 397,
      "dida": 398,
      "eg": 399,
      "ex": 400,
      "egr": 401,
      "fel": 402,
      "fim": 403,
      "feito": 404,
      "fico": 405,
      "gl": 406,
      "go": 407,
      "gem": 408,
      "hum": 409,
      "ir": 410,
      "ixa": 411,
      "nte": 412,
      "nen": 413,
      "nito": 414,
      "pei": 415,
      "ren": 416,
      "ria": 417,
      "ros": 418,
      "rcida": 419,
      "sangu": 420,
      "tinh": 421,
      "us": 422,
      "vis": 423,
      "vim": 424,
      "zo": 425,
      "ços": 426,
      "ém": 427,
      "éis": 428,
      "ória": 429,
      "rado": 430,
      "tenh": 431,
      "das": 432,
      "sei": 433,
      "sema": 434,
      "tou": 435,
      "todos": 436,
      "torcida": 437,
      "todas": 438,
      "Quando": 439,
      "roc": 440,
      "eitado": 441,
      "guém": 442,
      "fui": 443,
      "soas": 444,
      "perder": 445,
      "acredi": 446,
      "aceitado": 447,
      "amigos": 448,
      "tido": 449,
      "descan": 450,
      "alegr": 451,
      "eles": 452,
      "partido": 453,
      "bola": 454,
      "mudar": 455,
      "muito": 456,
      "oram": 457,
      "prazer": 458,
      "traz": 459,
      "impor": 460,
      "nhã": 461,
      "proble": 462,
      "tade": 463,
      "gramado": 464,
      "igo": 465,
      "dias": 466,
      "esperava": 467,
      "amaram": 468,
      "forma": 469,
      "pessoas": 470,
      "bonito": 471,
      "linda": 472,
      "nascer": 473,
      "voltou": 474,
      "sempre": 475,
      "contra": 476,
      "perdido": 477,
      "Amigos": 478,
      "Cada": 479,
      "Dias": 480,
      "Deixa": 481,
      "Diversão": 482,
      "Fui": 483,
      "Ficaram": 484,
      "Será": 485,
      "Todos": 486,
      "Vamos": 487,
      "apren": 488,
      "ega": 489,
      "ficou": 490,
      "glória": 491,
      "nenhum": 492,
      "sangue": 493,
      "tinha": 494,
      "visto": 495,
      "tenho": 496,
      "semana": 497,
      "descanso": 498,
      "alegria": 499
    },
    "merges": [
      [
        "e",
        "r"
      ],
      [
        "d",
        "e"
      ],
      [
        "d",
        "o"
      ],
      [
        "r",
        "a"
      ],
      [
        "ã",
        "o"
      ],
      [
        "t",
        "e"
      ],
      [
        "q",
        "u"
      ],
      [
        "d",
        "a"
      ],
      [
        "s",
        "e"
      ],
      [
        "m",
        "a"
      ],
      [
        "p",
        "a"
      ],
      [
        "e",
        "n"
      ],
      [
        "e",
        "s"
      ],
      [
        "i",
        "s"
      ],
      [
        "a",
        "n"
      ],
      [
        "t",
        "o"
      ],
      [
        "c",
        "o"
      ],
      [
        "i",
        "a"
      ],
      [
        "i",
        "da"
      ],
      [
        "qu",
        "er"
      ],
      [
        "a",
        "s"
      ],
      [
        "n",
        "ão"
      ],
      [
        "o",
        "s"
      ],
      [
        "Q",
        "u"
      ],
      [
        "e",
        "m"
      ],
      [
        "r",
        "o"
      ],
      [
        "e",
        "i"
      ],
      [
        "a",
        "r"
      ],
      [
        "e",
        "u"
      ],
      [
        "N",
        "ão"
      ],
      [
        "n",
        "o"
      ],
      [
        "o",
        "l"
      ],
      [
        "o",
        "r"
      ],
      [
        "r",
        "e"
      ],
      [
        "i",
        "n"
      ],
      [
        "u",
        "m"
      ],
      [
        "qu",
        "e"
      ],
      [
        "Qu",
        "e"
      ],
      [
        "E",
        "l"
      ],
      [
        "te",
        "m"
      ],
      [
        "en",
        "te"
      ],
      [
        "g",
        "u"
      ],
      [
        "p",
        "o"
      ],
      [
        "g",
        "ente"
      ],
      [
        "co",
        "m"
      ],
      [
        "a",
        "do"
      ],
      [
        "i",
        "c"
      ],
      [
        "o",
        "c"
      ],
      [
        "f",
        "u"
      ],
      [
        "i",
        "o"
      ],
      [
        "s",
        "o"
      ],
      [
        "d",
        "i"
      ],
      [
        "m",
        "e"
      ],
      [
        "p",
        "er"
      ],
      [
        "v",
        "a"
      ],
      [
        "ma",
        "is"
      ],
      [
        "es",
        "se"
      ],
      [
        "an",
        "do"
      ],
      [
        "a",
        "c"
      ],
      [
        "a",
        "m"
      ],
      [
        "t",
        "i"
      ],
      [
        "de",
        "s"
      ],
      [
        "oc",
        "ê"
      ],
      [
        "E",
        "u"
      ],
      [
        "a",
        "l"
      ],
      [
        "e",
        "l"
      ],
      [
        "u",
        "ma"
      ],
      [
        "í",
        "s"
      ],
      [
        "pa",
        "r"
      ],
      [
        "pa",
        "ís"
      ],
      [
        "b",
        "ol"
      ],
      [
        "i",
        "v"
      ],
      [
        "m",
        "u"
      ],
      [
        "o",
        "ra"
      ],
      [
        "p",
        "ra"
      ],
      [
        "r",
        "io"
      ],
      [
        "s",
        "é"
      ],
      [
        "s",
        "ó"
      ],
      [
        "t",
        "er"
      ],
      [
        "t",
        "ra"
      ],
      [
        "El",
        "a"
      ],
      [
        "tem",
        "po"
      ],
      [
        "sé",
        "rio"
      ],
      [
        "M",
        "as"
      ],
      [
        "a",
        "ra"
      ],
      [
        "v",
        "ida"
      ],
      [
        "e",
        "j"
      ],
      [
        "i",
        "m"
      ],
      [
        "n",
        "a"
      ],
      [
        "n",
        "h"
      ],
      [
        "p",
        "ro"
      ],
      [
        "t",
        "ida"
      ],
      [
        "ç",
        "ão"
      ],
      [
        "te",
        "bol"
      ],
      [
        "El",
        "e"
      ],
      [
        "fu",
        "tebol"
      ],
      [
        "va",
        "i"
      ],
      [
        "par",
        "tida"
      ],
      [
        "D",
        "e"
      ],
      [
        "V",
        "ocê"
      ],
      [
        "d",
        "u"
      ],
      [
        "d",
        "is"
      ],
      [
        "f",
        "o"
      ],
      [
        "s",
        "a"
      ],
      [
        "t",
        "a"
      ],
      [
        "t",
        "u"
      ],
      [
        "v",
        "ej"
      ],
      [
        "ma",
        "do"
      ],
      [
        "pa",
        "s"
      ],
      [
        "pa",
        "ra"
      ],
      [
        "ei",
        "to"
      ],
      [
        "ei",
        "ro"
      ],
      [
        "in",
        "h"
      ],
      [
        "gu",
        "a"
      ],
      [
        "am",
        "or"
      ],
      [
        "M",
        "a"
      ],
      [
        "T",
        "er"
      ],
      [
        "f",
        "a"
      ],
      [
        "g",
        "ra"
      ],
      [
        "i",
        "g"
      ],
      [
        "do",
        "s"
      ],
      [
        "ra",
        "ção"
      ],
      [
        "qu",
        "ê"
      ],
      [
        "da",
        "r"
      ],
      [
        "co",
        "ração"
      ],
      [
        "quer",
        "ia"
      ],
      [
        "em",
        "b"
      ],
      [
        "iv",
        "er"
      ],
      [
        "vej",
        "o"
      ],
      [
        "C",
        "o"
      ],
      [
        "E",
        "du"
      ],
      [
        "M",
        "ô"
      ],
      [
        "b",
        "e"
      ],
      [
        "c",
        "h"
      ],
      [
        "d",
        "ia"
      ],
      [
        "g",
        "r"
      ],
      [
        "i",
        "l"
      ],
      [
        "i",
        "to"
      ],
      [
        "i",
        "co"
      ],
      [
        "n",
        "ic"
      ],
      [
        "p",
        "l"
      ],
      [
        "p",
        "re"
      ],
      [
        "s",
        "er"
      ],
      [
        "s",
        "ão"
      ],
      [
        "s",
        "ol"
      ],
      [
        "t",
        "á"
      ],
      [
        "v",
        "ocê"
      ],
      [
        "z",
        "er"
      ],
      [
        "de",
        "c"
      ],
      [
        "es",
        "per"
      ],
      [
        "es",
        "tá"
      ],
      [
        "quer",
        "o"
      ],
      [
        "as",
        "o"
      ],
      [
        "ar",
        "do"
      ],
      [
        "re",
        "di"
      ],
      [
        "com",
        "o"
      ],
      [
        "com",
        "ida"
      ],
      [
        "ac",
        "aso"
      ],
      [
        "inh",
        "eiro"
      ],
      [
        "emb",
        "ora"
      ],
      [
        "Co",
        "m"
      ],
      [
        "Edu",
        "ardo"
      ],
      [
        "Mô",
        "nic"
      ],
      [
        "Mônic",
        "a"
      ],
      [
        "E",
        "n"
      ],
      [
        "I",
        "de"
      ],
      [
        "P",
        "ara"
      ],
      [
        "T",
        "em"
      ],
      [
        "a",
        "g"
      ],
      [
        "a",
        "ma"
      ],
      [
        "b",
        "ida"
      ],
      [
        "d",
        "er"
      ],
      [
        "d",
        "inheiro"
      ],
      [
        "f",
        "or"
      ],
      [
        "g",
        "er"
      ],
      [
        "g",
        "ia"
      ],
      [
        "j",
        "eito"
      ],
      [
        "l",
        "á"
      ],
      [
        "m",
        "en"
      ],
      [
        "m",
        "es"
      ],
      [
        "n",
        "do"
      ],
      [
        "o",
        "is"
      ],
      [
        "o",
        "gia"
      ],
      [
        "p",
        "e"
      ],
      [
        "p",
        "en"
      ],
      [
        "p",
        "es"
      ],
      [
        "t",
        "ão"
      ],
      [
        "v",
        "o"
      ],
      [
        "v",
        "ia"
      ],
      [
        "v",
        "iver"
      ],
      [
        "x",
        "a"
      ],
      [
        "ç",
        "a"
      ],
      [
        "í",
        "do"
      ],
      [
        "er",
        "ia"
      ],
      [
        "do",
        "r"
      ],
      [
        "te",
        "ger"
      ],
      [
        "qu",
        "an"
      ],
      [
        "se",
        "u"
      ],
      [
        "ma",
        "s"
      ],
      [
        "an",
        "dar"
      ],
      [
        "Qu",
        "eria"
      ],
      [
        "ol",
        "ogia"
      ],
      [
        "fu",
        "tu"
      ],
      [
        "ti",
        "r"
      ],
      [
        "tra",
        "ído"
      ],
      [
        "ara",
        "m"
      ],
      [
        "na",
        "da"
      ],
      [
        "pro",
        "teger"
      ],
      [
        "De",
        "via"
      ],
      [
        "dis",
        "traído"
      ],
      [
        "fo",
        "i"
      ],
      [
        "ig",
        "os"
      ],
      [
        "dec",
        "i"
      ],
      [
        "En",
        "quan"
      ],
      [
        "Ide",
        "ologia"
      ],
      [
        "futu",
        "ro"
      ],
      [
        "Enquan",
        "to"
      ],
      [
        "A",
        "c"
      ],
      [
        "A",
        "l"
      ],
      [
        "B",
        "e"
      ],
      [
        "C",
        "h"
      ],
      [
        "D",
        "ois"
      ],
      [
        "T",
        "re"
      ],
      [
        "V",
        "i"
      ],
      [
        "b",
        "o"
      ],
      [
        "c",
        "a"
      ],
      [
        "c",
        "ida"
      ],
      [
        "f",
        "ic"
      ],
      [
        "g",
        "an"
      ],
      [
        "g",
        "al"
      ],
      [
        "h",
        "o"
      ],
      [
        "h",
        "ar"
      ],
      [
        "i",
        "t"
      ],
      [
        "i",
        "mado"
      ],
      [
        "i",
        "gua"
      ],
      [
        "l",
        "e"
      ],
      [
        "l",
        "in"
      ],
      [
        "m",
        "eu"
      ],
      [
        "n",
        "as"
      ],
      [
        "n",
        "des"
      ],
      [
        "o",
        "u"
      ],
      [
        "p",
        "or"
      ],
      [
        "s",
        "ado"
      ],
      [
        "s",
        "ando"
      ],
      [
        "t",
        "ado"
      ],
      [
        "v",
        "en"
      ],
      [
        "v",
        "ol"
      ],
      [
        "z",
        "e"
      ],
      [
        "á",
        "gua"
      ],
      [
        "er",
        "a"
      ],
      [
        "ra",
        "m"
      ],
      [
        "qu",
        "em"
      ],
      [
        "qu",
        "ic"
      ],
      [
        "se",
        "m"
      ],
      [
        "se",
        "de"
      ],
      [
        "se",
        "gu"
      ],
      [
        "an",
        "gu"
      ],
      [
        "an",
        "ça"
      ],
      [
        "an",
        "imado"
      ],
      [
        "to",
        "do"
      ],
      [
        "co",
        "n"
      ],
      [
        "ei",
        "ra"
      ],
      [
        "no",
        "vida"
      ],
      [
        "re",
        "pe"
      ],
      [
        "in",
        "te"
      ],
      [
        "po",
        "vo"
      ],
      [
        "com",
        "er"
      ],
      [
        "ado",
        "s"
      ],
      [
        "so",
        "u"
      ],
      [
        "so",
        "nh"
      ],
      [
        "di",
        "gal"
      ],
      [
        "per",
        "di"
      ],
      [
        "ac",
        "ar"
      ],
      [
        "ti",
        "mes"
      ],
      [
        "el",
        "as"
      ],
      [
        "mu",
        "ndo"
      ],
      [
        "mu",
        "seu"
      ],
      [
        "dis",
        "so"
      ],
      [
        "fo",
        "me"
      ],
      [
        "sa",
        "be"
      ],
      [
        "pas",
        "to"
      ],
      [
        "pas",
        "sado"
      ],
      [
        "Ma",
        "io"
      ],
      [
        "fa",
        "zer"
      ],
      [
        "gra",
        "ndes"
      ],
      [
        "gr",
        "it"
      ],
      [
        "pl",
        "acar"
      ],
      [
        "esper",
        "ança"
      ],
      [
        "redi",
        "te"
      ],
      [
        "Com",
        "ida"
      ],
      [
        "Tem",
        "po"
      ],
      [
        "ag",
        "ados"
      ],
      [
        "men",
        "os"
      ],
      [
        "pen",
        "sando"
      ],
      [
        "deci",
        "de"
      ],
      [
        "Ac",
        "redite"
      ],
      [
        "Al",
        "agados"
      ],
      [
        "Be",
        "bida"
      ],
      [
        "Tre",
        "ze"
      ],
      [
        "Vi",
        "digal"
      ],
      [
        "fic",
        "ar"
      ],
      [
        "gan",
        "har"
      ],
      [
        "igua",
        "is"
      ],
      [
        "quic",
        "ando"
      ],
      [
        "novida",
        "des"
      ],
      [
        "repe",
        "tir"
      ],
      [
        "grit",
        "ando"
      ],
      [
        "A",
        "h"
      ],
      [
        "A",
        "m"
      ],
      [
        "A",
        "s"
      ],
      [
        "C",
        "a"
      ],
      [
        "D",
        "a"
      ],
      [
        "D",
        "ia"
      ],
      [
        "D",
        "ei"
      ],
      [
        "D",
        "iver"
      ],
      [
        "F",
        "u"
      ],
      [
        "F",
        "ic"
      ],
      [
        "M",
        "eu"
      ],
      [
        "N",
        "a"
      ],
      [
        "N",
        "o"
      ],
      [
        "N",
        "as"
      ],
      [
        "N",
        "um"
      ],
      [
        "P",
        "ra"
      ],
      [
        "S",
        "er"
      ],
      [
        "S",
        "em"
      ],
      [
        "S",
        "ou"
      ],
      [
        "T",
        "o"
      ],
      [
        "U",
        "m"
      ],
      [
        "V",
        "am"
      ],
      [
        "V",
        "iv"
      ],
      [
        "a",
        "p"
      ],
      [
        "a",
        "va"
      ],
      [
        "b",
        "al"
      ],
      [
        "b",
        "le"
      ],
      [
        "c",
        "er"
      ],
      [
        "c",
        "an"
      ],
      [
        "d",
        "ida"
      ],
      [
        "e",
        "g"
      ],
      [
        "e",
        "x"
      ],
      [
        "e",
        "gr"
      ],
      [
        "f",
        "el"
      ],
      [
        "f",
        "im"
      ],
      [
        "f",
        "eito"
      ],
      [
        "f",
        "ico"
      ],
      [
        "g",
        "l"
      ],
      [
        "g",
        "o"
      ],
      [
        "g",
        "em"
      ],
      [
        "h",
        "um"
      ],
      [
        "i",
        "r"
      ],
      [
        "i",
        "xa"
      ],
      [
        "n",
        "te"
      ],
      [
        "n",
        "en"
      ],
      [
        "n",
        "ito"
      ],
      [
        "p",
        "ei"
      ],
      [
        "r",
        "en"
      ],
      [
        "r",
        "ia"
      ],
      [
        "r",
        "os"
      ],
      [
        "r",
        "cida"
      ],
      [
        "s",
        "angu"
      ],
      [
        "t",
        "inh"
      ],
      [
        "u",
        "s"
      ],
      [
        "v",
        "is"
      ],
      [
        "v",
        "im"
      ],
      [
        "z",
        "o"
      ],
      [
        "ç",
        "os"
      ],
      [
        "é",
        "m"
      ],
      [
        "é",
        "is"
      ],
      [
        "ó",
        "ria"
      ],
      [
        "ra",
        "do"
      ],
      [
        "te",
        "nh"
      ],
      [
        "da",
        "s"
      ],
      [
        "se",
        "i"
      ],
      [
        "se",
        "ma"
      ],
      [
        "to",
        "u"
      ],
      [
        "to",
        "dos"
      ],
      [
        "to",
        "rcida"
      ],
      [
        "to",
        "das"
      ],
      [
        "Qu",
        "ando"
      ],
      [
        "ro",
        "c"
      ],
      [
        "ei",
        "tado"
      ],
      [
        "gu",
        "ém"
      ],
      [
        "fu",
        "i"
      ],
      [
        "so",
        "as"
      ],
      [
        "per",
        "der"
      ],
      [
        "ac",
        "redi"
      ],
      [
        "ac",
        "eitado"
      ],
      [
        "am",
        "igos"
      ],
      [
        "ti",
        "do"
      ],
      [
        "des",
        "can"
      ],
      [
        "al",
        "egr"
      ],
      [
        "el",
        "es"
      ],
      [
        "par",
        "tido"
      ],
      [
        "bol",
        "a"
      ],
      [
        "mu",
        "dar"
      ],
      [
        "mu",
        "ito"
      ],
      [
        "ora",
        "m"
      ],
      [
        "pra",
        "zer"
      ],
      [
        "tra",
        "z"
      ],
      [
        "im",
        "por"
      ],
      [
        "nh",
        "ã"
      ],
      [
        "pro",
        "ble"
      ],
      [
        "ta",
        "de"
      ],
      [
        "gra",
        "mado"
      ],
      [
        "ig",
        "o"
      ],
      [
        "dia",
        "s"
      ],
      [
        "esper",
        "ava"
      ],
      [
        "ama",
        "ram"
      ],
      [
        "for",
        "ma"
      ],
      [
        "pes",
        "soas"
      ],
      [
        "bo",
        "nito"
      ],
      [
        "lin",
        "da"
      ],
      [
        "nas",
        "cer"
      ],
      [
        "vol",
        "tou"
      ],
      [
        "sem",
        "pre"
      ],
      [
        "con",
        "tra"
      ],
      [
        "perdi",
        "do"
      ],
      [
        "Am",
        "igos"
      ],
      [
        "Ca",
        "da"
      ],
      [
        "Dia",
        "s"
      ],
      [
        "Dei",
        "xa"
      ],
      [
        "Diver",
        "são"
      ],
      [
        "Fu",
        "i"
      ],
      [
        "Fic",
        "aram"
      ],
      [
        "Ser",
        "á"
      ],
      [
        "To",
        "dos"
      ],
      [
        "Vam",
        "os"
      ],
      [
        "ap",
        "ren"
      ],
      [
        "eg",
        "a"
      ],
      [
        "fico",
        "u"
      ],
      [
        "gl",
        "ória"
      ],
      [
        "nen",
        "hum"
      ],
      [
        "sangu",
        "e"
      ],
      [
        "tinh",
        "a"
      ],
      [
        "vis",
        "to"
      ],
      [
        "tenh",
        "o"
      ],
      [
        "sema",
        "na"
      ],
      [
        "descan",
        "so"
      ],
      [
        "alegr",
        "ia"
      ]
    ]
  }
}