{
  "version": "1.0",
  "truncation": null,
  "padding": null,
  "added_tokens": [
    {
      "id": 0,
      "content": "<pad>",
      "single_word": false,
      "lstrip": false,
      "rstrip": false,
      "normalized": false,
      "special": true
    },
    {
      "id": 1,
      "content": "<bos>",
      "single_word": false,
      "lstrip": false,
      "rstrip": false,
      "normalized": false,
      "special": true
    },
    {
      "id": 2,
      "content": "<eos>",
      "single_word": false,
      "lstrip": false,
      "rstrip": false,
      "normalized": false,
      "special": true
    },
    {
      "id": 3,
      "content": "<unk>",
      "single_word": false,
      "lstrip": false,
      "rstrip": false,
      "normalized": false,
      "special": true
    },
    {
      "id": 4,
      "content": "<pergunta>",
      "single_word": false,
      "lstrip": false,
      "rstrip": false,
      "normalized": false,
      "special": true
    },
    {
      "id": 5,
      "content": "<resposta>",
      "single_word": false,
      "lstrip": false,
      "rstrip": false,
      "normalized": false,
      "special": true
    },
    {
      "id": 6,
      "content": "<topico>",
      "single_word": false,
      "lstrip": false,
      "rstrip": false,
      "normalized": false,
      "special": true
    },
    {
      "id": 7,
      "content": "<conteudo>",
      "single_word": false,
      "lstrip": false,
      "rstrip": false,
      "normalized": false,
      "special": true
    },
    {
      "id": 8,
      "content": "<exercicio>",
      "single_word": false,
      "lstrip": false,
      "rstrip": false,
      "normalized": false,
      "special": true
    },
    {
      "id": 9,
      "content": "<resolucao>",
      "single_word": false,
      "lstrip": false,
      "rstrip": false,
      "normalized": false,
      "special": true
    },
    {
      "id": 10,
      "content": "<gabarito>",
      "single_word": false,
      "lstrip": false,
      "rstrip": false,
      "normalized": false,
      "special": true
    }
  ],
  "normalizer": {
    "type": "NFKC"
  },
  "pre_tokenizer": {
    "type": "ByteLevel",
    "add_prefix_space": false,
    "trim_offsets": true,
    "use_regex": true
  },
  "post_processor": null,
  "decoder": {
    "type": "ByteLevel",
    "add_prefix_space": true,
    "trim_offsets": true,
    "use_regex": true
  },
  "model": {
    "type": "BPE",
    "dropout": null,
    "unk_token": "<unk>",
    "continuing_subword_prefix": null,
    "end_of_word_suffix": null,
    "fuse_unk": false,
    "byte_fallback": false,
    "ignore_merges": false,
    "vocab": {
      "<pad>": 0,
      "<bos>": 1,
      "<eos>": 2,
      "<unk>": 3,
      "<pergunta>": 4,
      "<resposta>": 5,
      "<topico>": 6,
      "<conteudo>": 7,
      "<exercicio>": 8,
      "<resolucao>": 9,
      "<gabarito>": 10,
      "!": 11,
      "#": 12,
      "%": 13,
      "(": 14,
      ")": 15,
      "+": 16,
      ",": 17,
      "-": 18,
      ".": 19,
      "/": 20,
      "0": 21,
      "1": 22,
      "2": 23,
      "3": 24,
      "4": 25,
      "5": 26,
      "6": 27,
      "7": 28,
      "8": 29,
      "9": 30,
      ":": 31,
      ";": 32,
      "<": 33,
      "=": 34,
      ">": 35,
      "?": 36,
      "A": 37,
      "B": 38,
      "C": 39,
      "D": 40,
      "E": 41,
      "F": 42,
      "G": 43,
      "H": 44,
      "I": 45,
      "J": 46,
      "K": 47,
      "L": 48,
      "M": 49,
      "N": 50,
      "O": 51,
      "P": 52,
      "Q": 53,
      "R": 54,
      "S": 55,
      "T": 56,
      "U": 57,
      "V": 58,
      "W": 59,
      "X": 60,
      "Y": 61,
      "Z": 62,
      "a": 63,
      "b": 64,
      "c": 65,
      "d": 66,
      "e": 67,
      "f": 68,
      "g": 69,
      "h": 70,
      "i": 71,
      "j": 72,
      "k": 73,
      "l": 74,
      "m": 75,
      "n": 76,
      "o": 77,
      "p": 78,
      "q": 79,
      "r": 80,
      "s": 81,
      "t": 82,
      "u": 83,
      "v": 84,
      "w": 85,
      "x": 86,
      "y": 87,
      "z": 88,
      "|": 89,
      "¡": 90,
      "¢": 91,
      "£": 92,
      "§": 93,
      "©": 94,
      "ª": 95,
      "®": 96,
      "³": 97,
      "´": 98,
      "µ": 99,
      "º": 100,
      "Â": 101,
      "Ã": 102,
      "â": 103,
      "ï": 104,
      "Ċ": 105,
      "č": 106,
      "Ġ": 107,
      "Ģ": 108,
      "ģ": 109,
      "ĥ": 110,
      "ī": 111,
      "Ĭ": 112,
      "Ĳ": 113,
      "ĵ": 114,
      "ĺ": 115,
      "Ļ": 116,
      "ľ": 117,
      "Ŀ": 118,
      "ł": 119,
      "Ń": 120,
      "čĊ": 121,
      "Ġd": 122,
      "as": 123,
      "Ġa": 124,
      "nt": 125,
      "Ġe": 126,
      "co": 127,
      "Ġm": 128,
      "Ġp": 129,
      "ra": 130,
      "Ġs": 131,
      "Ġn": 132,
      "ca": 133,
      "os": 134,
      "er": 135,
      "Ġde": 136,
      "Ġt": 137,
      "or": 138,
      "um": 139,
      "qu": 140,
      "em": 141,
      "Ġco": 142,
      "es": 143,
      "Ġo": 144,
      "ar": 145,
      "Ġqu": 146,
      "Ġum": 147,
      "ad": 148,
      "Ã£": 149,
      "Ã£o": 150,
      "ica": 151,
      "Ã©": 152,
      "im": 153,
      "ent": 154,
      "Ġcom": 155,
      "is": 156,
      "ta": 157,
      "in": 158,
      "Ġno": 159,
      "Ġf": 160,
      "en": 161,
      "id": 162,
      "gu": 163,
      "re": 164,
      "Ã§": 165,
      "Ġes": 166,
      "Ã¡": 167,
      "al": 168,
      "it": 169,
      "Ġque": 170,
      "Ã³": 171,
      "ia": 172,
      "Ġb": 173,
      "Ġuma": 174,
      "la": 175,
      "us": 176,
      "Ġma": 177,
      "do": 178,
      "Ġpa": 179,
      "ÃŃ": 180,
      "ĠÃ©": 181,
      "Ãº": 182,
      "Ġse": 183,
      "ve": 184,
      "Ġas": 185,
      "Ġc": 186,
      "ro": 187,
      "tas": 188,
      "Ġda": 189,
      "Ġna": 190,
      "âĢ": 191,
      "ente": 192,
      "igu": 193,
      "Ġdo": 194,
      "Ġ1": 195,
      "Ãºs": 196,
      "de": 197,
      "igura": 198,
      "Ġpara": 199,
      "lo": 200,
      "am": 201,
      "Ġou": 202,
      "ĠmÃºs": 203,
      "int": 204,
      "on": 205,
      "at": 206,
      "da": 207,
      "Ãª": 208,
      "ec": 209,
      "Ġl": 210,
      "ĠA": 211,
      "ior": 212,
      "ma": 213,
      "Ġv": 214,
      "Ġto": 215,
      "ĠmÃºsica": 216,
      "Ġsem": 217,
      "ir": 218,
      "ol": 219,
      "cor": 220,
      "an": 221,
      "te": 222,
      "ura": 223,
      "ĠâĢ": 224,
      "Ġnotas": 225,
      "Ã§Ã£o": 226,
      "ĠD": 227,
      "Ġcomo": 228,
      "ima": 229,
      "ei": 230,
      "Ġmaior": 231,
      "ĠS": 232,
      "Figura": 233,
      "ade": 234,
      "enor": 235,
      "om": 236,
      "tr": 237,
      "ĠI": 238,
      "ci": 239,
      "so": 240,
      "Ġacor": 241,
      "to": 242,
      "mente": 243,
      "Ġnota": 244,
      "Ġem": 245,
      "Ġcomp": 246,
      "Ġpo": 247,
      "Ġmenor": 248,
      "Ġtr": 249,
      "Ġos": 250,
      "Ġca": 251,
      "Ġin": 252,
      "Ġmais": 253,
      "Ã§a": 254,
      "Ġtem": 255,
      "ando": 256,
      "Ġesca": 257,
      "ĠâĢĵ": 258,
      "Ġpor": 259,
      "iz": 260,
      "Ġpe": 261,
      "tra": 262,
      "if": 263,
      "ĠM": 264,
      "iv": 265,
      "ĠsÃ£o": 266,
      "ras": 267,
      "usica": 268,
      "Ġfor": 269,
      "ĠT": 270,
      "Ġre": 271,
      "po": 272,
      "Ġent": 273,
      "Ġtoca": 274,
      "ument": 275,
      "atid": 276,
      "las": 277,
      "Ġser": 278,
      "Ġcont": 279,
      "ado": 280,
      "Ġex": 281,
      "Ġpr": 282,
      "ĠDÃ³": 283,
      "se": 284,
      "ada": 285,
      "Ġter": 286,
      "Ġsegu": 287,
      "bre": 288,
      "ido": 289,
      "Ġbatid": 290,
      "Ġmusica": 291,
      "Ġcon": 292,
      "Ġescala": 293,
      "il": 294,
      "Ġint": 295,
      "val": 296,
      "ĠC": 297,
      "ĠE": 298,
      "Ġpar": 299,
      "erval": 300,
      "res": 301,
      "ver": 302,
      "ĠO": 303,
      "Ġbem": 304,
      "ut": 305,
      "Ġnum": 306,
      "Ġacorde": 307,
      "ico": 308,
      "ig": 309,
      "no": 310,
      "asso": 311,
      "Ã©t": 312,
      "Ã³n": 313,
      "Ġest": 314,
      "pa": 315,
      "ua": 316,
      "ĠnÃ£o": 317,
      "ito": 318,
      "Ġ(": 319,
      "Ġh": 320,
      "Ġal": 321,
      "das": 322,
      "que": 323,
      "mo": 324,
      "nc": 325,
      "ri": 326,
      "Ġsemit": 327,
      "ĠÃ": 328,
      "ten": 329,
      "ĠF": 330,
      "Ġmu": 331,
      "imp": 332,
      "Ġme": 333,
      "emos": 334,
      "rm": 335,
      "Ãªs": 336,
      "uas": 337,
      "lave": 338,
      "Ġmusical": 339,
      "ant": 340,
      "des": 341,
      "Ġinterval": 342,
      "ostra": 343,
      "ĠU": 344,
      "Ġbemol": 345,
      "inh": 346,
      "AR": 347,
      "Ġg": 348,
      "Ġcompasso": 349,
      "Ġdes": 350,
      "usten": 351,
      "inu": 352,
      "idade": 353,
      "ĠP": 354,
      "ĠtrÃªs": 355,
      "Ġmostra": 356,
      "Ġdois": 357,
      "ĠR": 358,
      "Ġmo": 359,
      "Ġforma": 360,
      "ici": 361,
      "un": 362,
      "ulo": 363,
      "Ġap": 364,
      "ĠsÃ©t": 365,
      "Ġfigura": 366,
      "ÃŃn": 367,
      "Ġclave": 368,
      "str": 369,
      "tura": 370,
      "Ġper": 371,
      "atro": 372,
      "ĠÃł": 373,
      "ĠL": 374,
      "ch": 375,
      "ul": 376,
      "Ġdas": 377,
      "ons": 378,
      "Ġtocar": 379,
      "ic": 380,
      "Ġsusten": 381,
      "sim": 382,
      "Ġquando": 383,
      "Ġduas": 384,
      "Ġmes": 385,
      "imei": 386,
      "Ġentre": 387,
      "ncia": 388,
      "ĠFÃ¡": 389,
      "der": 390,
      "Ġquint": 391,
      "adas": 392,
      "Ġquatro": 393,
      "Ġesc": 394,
      "Ġacordes": 395,
      "Ġnuma": 396,
      "ĠLÃ¡": 397,
      "Ġlinh": 398,
      "iliz": 399,
      "CA": 400,
      "Ġso": 401,
      "ĠtrÃŃ": 402,
      "ifica": 403,
      "les": 404,
      "Ġsegun": 405,
      "Ã³nica": 406,
      "LO": 407,
      "az": 408,
      "amos": 409,
      "ifer": 410,
      "Ã©m": 411,
      "Ġve": 412,
      "ĠSol": 413,
      "utiliz": 414,
      "Ġen": 415,
      "iminu": 416,
      "almente": 417,
      "Ġintervalo": 418,
      "IT": 419,
      "mos": 420,
      "µes": 421,
      "Ãµes": 422,
      "nte": 423,
      "Ġbatida": 424,
      "Qu": 425,
      "Ġdifer": 426,
      "Ġaument": 427,
      "strument": 428,
      "TE": 429,
      "Ġac": 430,
      "Ġsua": 431,
      "emp": 432,
      "Ġ10": 433,
      "be": 434,
      "Ġmas": 435,
      "Ġver": 436,
      "Ġprimei": 437,
      "Ġgra": 438,
      "ita": 439,
      "lch": 440,
      "Ġpro": 441,
      "Ġpaus": 442,
      "âĢĿ": 443,
      "ĠpeÃ§a": 444,
      "ĠsÃ©tima": 445,
      "dos": 446,
      "sÃ£o": 447,
      "iano": 448,
      "Ãªncia": 449,
      "Ġsemitom": 450,
      "ce": 451,
      "ĠN": 452,
      "ist": 453,
      "Ġutiliz": 454,
      "Ġr": 455,
      "Ġdiminu": 456,
      "cont": 457,
      "Ġ13": 458,
      "Ġbatidas": 459,
      "itar": 460,
      "Ġexemp": 461,
      "Ġpart": 462,
      "Ġmuito": 463,
      "Ġj": 464,
      "Ġao": 465,
      "rar": 466,
      "imas": 467,
      "ĠâĢľ": 468,
      "rmad": 469,
      "Ġsustenido": 470,
      "ULO": 471,
      "Ġ3": 472,
      "arm": 473,
      "ĠentÃ£o": 474,
      "PAR": 475,
      "sa": 476,
      "ram": 477,
      "Ġcada": 478,
      "Ġvez": 479,
      "PARTE": 480,
      "ĠV": 481,
      "Ġdura": 482,
      "Ġfaz": 483,
      "ida": 484,
      "bÃ©m": 485,
      "ibre": 486,
      "pe": 487,
      "uta": 488,
      "Ġarmad": 489,
      "Ġpiano": 490,
      "Ġtec": 491,
      "ĠMi": 492,
      "CAP": 493,
      "Ġgu": 494,
      "Ġir": 495,
      "ecer": 496,
      "Ġinstrument": 497,
      "Ġtempo": 498,
      "imples": 499,
      "icion": 500,
      "icas": 501,
      "Ãĺ": 502,
      "ïĥ": 503,
      "Ġch": 504,
      "ÃŃnima": 505,
      "ĠtrÃŃade": 506,
      "ITULO": 507,
      "Ġexemplo": 508,
      "CAPITULO": 509,
      "ïĥĺ": 510,
      "Ġnatura": 511,
      "Ġpode": 512,
      "Ġguitar": 513,
      "va": 514,
      "Ġassim": 515,
      "ibreve": 516,
      "up": 517,
      "orn": 518,
      "ÃŃt": 519,
      "ĠterÃ§a": 520,
      "dia": 521,
      "lu": 522,
      "ntar": 523,
      "entes": 524,
      "ign": 525,
      "Ġquinta": 526,
      "par": 527,
      "Ġor": 528,
      "Ġqual": 529,
      "ados": 530,
      "ĠAs": 531,
      "ignifica": 532,
      "ja": 533,
      "me": 534,
      "nde": 535,
      "vel": 536,
      "Ġ11": 537,
      "ambÃ©m": 538,
      "ĠestÃ¡": 539,
      "Ġsegunda": 540,
      "dicion": 541,
      "Ġ4": 542,
      "Ġ12": 543,
      "ĠSi": 544,
      "Ġcompos": 545,
      "Ġarmadura": 546,
      "ai": 547,
      "pÃŃt": 548,
      "Ġpre": 549,
      "Ġsimples": 550,
      "dem": 551,
      "le": 552,
      "Ġimp": 553,
      "Ġdos": 554,
      "quer": 555,
      "Ã³rm": 556,
      "Ġporque": 557,
      "ĠprÃ³": 558,
      "Ġsemitons": 559,
      "Ġnatural": 560,
      "Ġguitarra": 561,
      "Ã³rmu": 562,
      "ter": 563,
      "ĠtambÃ©m": 564,
      "itmo": 565,
      "Ġsemibreve": 566,
      "ĠII": 567,
      "icos": 568,
      "ĠRÃ©": 569,
      "pÃŃtulo": 570,
      "MO": 571,
      "ber": 572,
      "eia": 573,
      "ades": 574,
      "itas": 575,
      "Ġle": 576,
      "paÃ§": 577,
      "ou": 578,
      "Ġat": 579,
      "endo": 580,
      "omo": 581,
      "Ġescalas": 582,
      "Ġperf": 583,
      "uras": 584,
      "Ġ2": 585,
      "Ġsignifica": 586,
      "ero": 587,
      "Ġcome": 588,
      "nos": 589,
      "com": 590,
      "Ġpad": 591,
      "Ġti": 592,
      "idos": 593,
      "eias": 594,
      "Ġpont": 595,
      "Ġharm": 596,
      "Ġpausa": 597,
      "IA": 598,
      "Ġnas": 599,
      "Ã§Ãµes": 600,
      "Ã¡s": 601,
      "ĠIII": 602,
      "mas": 603,
      "udo": 604,
      "ĠH": 605,
      "Ġoita": 606,
      "ĠespaÃ§": 607,
      "Ãªm": 608,
      "Ġtemos": 609,
      "Ġcons": 610,
      "Ġlinhas": 611,
      "Ġritmo": 612,
      "As": 613,
      "ria": 614,
      "Ġsa": 615,
      "Ġcolch": 616,
      "enas": 617,
      "ĠSe": 618,
      "Ġescre": 619,
      "Quando": 620,
      "Ġcham": 621,
      "eor": 622,
      "lÃ³": 623,
      "min": 624,
      "ĠtÃ³nica": 625,
      "uma": 626,
      "ĠfÃ³rmu": 627,
      "alor": 628,
      "Ãºm": 629,
      "Ġseu": 630,
      "Ġouv": 631,
      "Ġcad": 632,
      "ĠUma": 633,
      "Ġlinha": 634,
      "aix": 635,
      "Ġpadr": 636,
      "gem": 637,
      "Ġonde": 638,
      "Ġfo": 639,
      "Ġpauta": 640,
      "loca": 641,
      "Ġvalor": 642,
      "tras": 643,
      "ĠprÃ³x": 644,
      "culo": 645,
      "du": 646,
      "pres": 647,
      "Ġun": 648,
      "Ġadicion": 649,
      "Ġnos": 650,
      "Ġtorn": 651,
      "arras": 652,
      "inco": 653,
      "eita": 654,
      "ĠIV": 655,
      "ĠEs": 656,
      "Ġmesma": 657,
      "Ġsobre": 658,
      "ara": 659,
      "gres": 660,
      "pec": 661,
      "ĠtÃªm": 662,
      "Ġquar": 663,
      "imo": 664,
      "Ġmenores": 665,
      "ĠUM": 666,
      "ass": 667,
      "Ġfras": 668,
      "Dica": 669,
      "Uma": 670,
      "go": 671,
      "lh": 672,
      "ndo": 673,
      "Ġ7": 674,
      "ĠÃº": 675,
      "Ġdiv": 676,
      "Ġpos": 677,
      "itor": 678,
      "amente": 679,
      "para": 680,
      "anto": 681,
      "Ġprimeira": 682,
      "ĠatÃ©": 683,
      "Se": 684,
      "ĠnÃºm": 685,
      "ece": 686,
      "Ġintervalos": 687,
      "Ġencont": 688,
      "Ġprimeiro": 689,
      "dica": 690,
      "io": 691,
      "pos": 692,
      "unt": 693,
      "Ġsom": 694,
      "Ġteor": 695,
      "ento": 696,
      "tamente": 697,
      "Ġbarras": 698,
      "Ġ14": 699,
      "Ġmesmo": 700,
      "istem": 701,
      "lues": 702,
      "ĠespaÃ§os": 703,
      "QU": 704,
      "hecer": 705,
      "tade": 706,
      "Ġeste": 707,
      "Ġtom": 708,
      "eira": 709,
      "Ġparte": 710,
      "ĠcomeÃ§": 711,
      ").": 712,
      "NIA": 713,
      "era": 714,
      "mb": 715,
      "tiv": 716,
      "Ã¢": 717,
      "Ġ5": 718,
      "Ġ6": 719,
      "embre": 720,
      "irculo": 721,
      "ARMO": 722,
      "Ġinstrumentos": 723,
      "ĠHARMO": 724,
      "ĠHARMONIA": 725,
      "OR": 726,
      "Por": 727,
      "ais": 728,
      "Ġres": 729,
      "Ġant": 730,
      "con": 731,
      "ĠmÃŃnima": 732,
      "cab": 733,
      "Ġesta": 734,
      "Ġespec": 735,
      "Ġmaiores": 736,
      "Ġvezes": 737,
      "pare": 738,
      "Ġescrever": 739,
      "assos": 740,
      "RO": 741,
      "sem": 742,
      "ĠQU": 743,
      "Ġdis": 744,
      "ender": 745,
      "Ã§as": 746,
      "Ġbaix": 747,
      "Ġseja": 748,
      "Ġcri": 749,
      "ĠjÃ¡": 750,
      "comp": 751,
      "ĠpadrÃ£o": 752,
      "Ġmar": 753,
      "este": 754,
      "Ġquant": 755,
      "isto": 756,
      "Ġnome": 757,
      "Ġbra": 758,
      "Ġcas": 759,
      "ĠcapÃŃtulo": 760,
      "segu": 761,
      "Ġmusicais": 762,
      "ĠmelÃ³": 763,
      "ĠprÃ³xima": 764,
      "AT": 765,
      "av": 766,
      "ont": 767,
      "Ġus": 768,
      "Ġtra": 769,
      "esso": 770,
      "Ġalg": 771,
      "Ġapar": 772,
      "ĠcadÃªncia": 773,
      "Lembre": 774,
      "epare": 775,
      "gar": 776,
      "lar": 777,
      "ub": 778,
      "ĠB": 779,
      "car": 780,
      "Ġcor": 781,
      "inal": 782,
      "ÃŃs": 783,
      "ÃŃvel": 784,
      "cil": 785,
      "rita": 786,
      "Ġapenas": 787,
      "Ġacent": 788,
      "Ġprogres": 789,
      "ĠirÃ¡": 790,
      "Ġperfeita": 791,
      "ĠnÃºmero": 792,
      "na": 793,
      "Ġ9": 794,
      "ntÃ£o": 795,
      "Ġpal": 796,
      "Ġblues": 797,
      "Ġcima": 798,
      "cias": 799,
      "Ġcontar": 800,
      "Ġterc": 801,
      "uaÃ§Ã£o": 802,
      "Ġdiferentes": 803,
      "Ġfazer": 804,
      "Ġoitava": 805,
      "ĠfÃ³rmula": 806,
      "Ġdivid": 807,
      "ATRO": 808,
      "),": 809,
      "AS": 810,
      "cis": 811,
      "lado": 812,
      "vo": 813,
      "Ġdiz": 814,
      "Ġacab": 815,
      "Ġpesso": 816,
      "Ã¡ri": 817,
      "Ġcinco": 818,
      "Ġ16": 819,
      "lodia": 820,
      "Ãªn": 821,
      "Ġtodas": 822,
      "Ġinici": 823,
      "ĠhÃ¡": 824,
      "Ġmetade": 825,
      "ante": 826,
      "Ġquintas": 827,
      "Ġpausas": 828,
      "Ġdiminuta": 829,
      "Ġcompositor": 830,
      "Ġteoria": 831,
      "IS": 832,
      "pr": 833,
      "son": 834,
      "sto": 835,
      "Ġ|": 836,
      "Ġsent": 837,
      "orta": 838,
      "quanto": 839,
      "Ġcoloca": 840,
      "end": 841,
      "enh": 842,
      "idas": 843,
      "onal": 844,
      "Ġler": 845,
      "Ġlig": 846,
      "Ġinver": 847,
      "icolch": 848,
      "ĠestÃ£o": 849,
      "ĠPor": 850,
      "ÃŃnimas": 851,
      "Ġdiferente": 852,
      "Ġqualidade": 853,
      "Ġprecis": 854,
      "Ġfrase": 855,
      "Lembrete": 856,
      "Ãªncias": 857,
      "Como": 858,
      "RÃ": 859,
      "cas": 860,
      "ĠG": 861,
      "ĬS": 862,
      "Ġpen": 863,
      "aria": 864,
      "itos": 865,
      "inte": 866,
      "Ġvi": 867,
      "ĠsemÃŃnima": 868,
      "Ġsemicolch": 869,
      "ĠTo": 870,
      "ĠTRÃ": 871,
      "Ġreg": 872,
      "ĠOs": 873,
      "Ġmontar": 874,
      "Ġsustenidos": 875,
      "Ġescrita": 876,
      "ĠNo": 877,
      "ĠduraÃ§Ã£o": 878,
      "Ġinstrumento": 879,
      "Ġordem": 880,
      "ĠÃºn": 881,
      "ĠQUATRO": 882,
      "ĠTRÃĬS": 883,
      "):": 884,
      "ES": 885,
      "iÃ§Ã£o": 886,
      "los": 887,
      "ns": 888,
      "tar": 889,
      "Ġar": 890,
      "imento": 891,
      "indo": 892,
      "enÃ§a": 893,
      "Ġbas": 894,
      "âĢ¢": 895,
      "Ġ15": 896,
      "Ġliv": 897,
      "Ġpoder": 898,
      "Ġpodem": 899,
      "Ġpela": 900,
      "Ġrela": 901,
      "Ġaltura": 902,
      "Ġmelodia": 903,
      "ĠtrÃŃades": 904,
      "Ġtecla": 905,
      "termin": 906,
      "Ġencontrar": 907,
      "Ġinicio": 908,
      "Es": 909,
      "bal": 910,
      "fer": 911,
      "pre": 912,
      "tes": 913,
      "Ġisto": 914,
      "Ġdup": 915,
      "ess": 916,
      "iste": 917,
      "ĠfÃ¡": 918,
      "Ġfal": 919,
      "Ġvol": 920,
      "ĠnotaÃ§Ã£o": 921,
      "ĠÃī": 922,
      "Ġenquanto": 923,
      "Ġaumentada": 924,
      "pet": 925,
      "Ġqualquer": 926,
      "Ġtipo": 927,
      "Ġcolcheias": 928,
      "Ġquantidade": 929,
      "cid": 930,
      "lica": 931,
      "Ġra": 932,
      "Ġpul": 933,
      "ĠsÃ³": 934,
      "qui": 935,
      "Ġcomum": 936,
      "eiro": 937,
      "Ġaumentado": 938,
      "Ġteclado": 939,
      "Ġimporta": 940,
      "duz": 941,
      "Ġpessoas": 942,
      "Ġlivro": 943,
      "10": 944,
      "Para": 945,
      "agem": 946,
      "atamente": 947,
      "cia": 948,
      "eito": 949,
      "ira": 950,
      "ire": 951,
      "mu": 952,
      "per": 953,
      "Ġid": 954,
      "Ġro": 955,
      "ĠFigura": 956,
      "Ġab": 957,
      "Ġtudo": 958,
      "orm": 959,
      "imos": 960,
      "enci": 961,
      "usa": 962,
      "ĠTom": 963,
      "pois": 964,
      "Ġtocada": 965,
      "Ġcontem": 966,
      "Ġalgu": 967,
      "ĠUm": 968,
      "stru": 969,
      "Ġpartit": 970,
      "Ġcolcheia": 971,
      "Ġfoi": 972,
      "Ġposs": 973,
      "Ġcriar": 974,
      "ĠmelÃ³dica": 975,
      "ÃŃsson": 976,
      "12": 977,
      "Neste": 978,
      "hec": 979,
      "mÃºs": 980,
      "oc": 981,
      "turas": 982,
      "ud": 983,
      "ur": 984,
      "uco": 985,
      "utas": 986,
      "vas": 987,
      "xistem": 988,
      "Ġdire": 989,
      "ntes": 990,
      "como": 991,
      "Ġdetermin": 992,
      "Ġta": 993,
      "emente": 994,
      "Ġquer": 995,
      "Ġnovo": 996,
      "Ġban": 997,
      "ĠbÃ¡s": 998,
      "Ġsec": 999,
      "Ġoutr": 1000,
      "onia": 1001,
      "ĠIsto": 1002,
      "Ġcompassos": 1003,
      "Ġpop": 1004,
      "Ġped": 1005,
      "Ġcontinu": 1006,
      "Ġestar": 1007,
      "Ġmont": 1008,
      "ular": 1009,
      "ĠdiferenÃ§a": 1010,
      "Ġverd": 1011,
      "Ġsimplesmente": 1012,
      "Ġponto": 1013,
      "Ã¢m": 1014,
      "Ġalgum": 1015,
      "ĠacentuaÃ§Ã£o": 1016,
      "Ġpalav": 1017,
      "Ġoutros": 1018,
      "US": 1019,
      "for": 1020,
      "lem": 1021,
      "rÃŃ": 1022,
      "sÃµes": 1023,
      "tro": 1024,
      "Ġaut": 1025,
      "Ġamb": 1026,
      "Ġdever": 1027,
      "Ġtonal": 1028,
      "istas": 1029,
      "inÃ¢m": 1030,
      "Ġfica": 1031,
      "veis": 1032,
      "Ġoutras": 1033,
      "ĠmÃºsicos": 1034,
      "intes": 1035,
      "Ġtodos": 1036,
      "trÃ³n": 1037,
      "Ġpelo": 1038,
      "Ġconstru": 1039,
      "Ġtipos": 1040,
      "present": 1041,
      "tiva": 1042,
      "Ġbaixo": 1043,
      "balh": 1044,
      "Ġvolta": 1045,
      "11": 1046,
      "Ca": 1047,
      "ICA": 1048,
      "UM": 1049,
      "aÃ§Ã£o": 1050,
      "ex": 1051,
      "fin": 1052,
      "ulas": 1053,
      "ves": 1054,
      "Ġlo": 1055,
      "ĠQu": 1056,
      "ĠQuando": 1057,
      "erior": 1058,
      "Ġdev": 1059,
      "Ġdeve": 1060,
      "Ġdepois": 1061,
      "Ġcois": 1062,
      "Ġoito": 1063,
      "ista": 1064,
      "Ġfinal": 1065,
      "idera": 1066,
      "Ã§o": 1067,
      "interval": 1068,
      "cordes": 1069,
      "iver": 1070,
      "Ġrepresent": 1071,
      "Ġexatamente": 1072,
      "ĠRepare": 1073,
      "Ġapr": 1074,
      "Ġescr": 1075,
      "Ġacid": 1076,
      "Ġutilizadas": 1077,
      "Ġiremos": 1078,
      "querda": 1079,
      "ĠharmÃ³n": 1080,
      "Ã¡ss": 1081,
      "Ġsaber": 1082,
      "Ġpens": 1083,
      "ormalmente": 1084,
      "00": 1085,
      "De": 1086,
      "NT": 1087,
      "No": 1088,
      "Um": 1089,
      "pro": 1090,
      "Ġsuas": 1091,
      "orno": 1092,
      "empo": 1093,
      "Ġquis": 1094,
      "ental": 1095,
      "inda": 1096,
      "Ġfa": 1097,
      "Ġesquerda": 1098,
      "Ã³is": 1099,
      "onhecer": 1100,
      "iras": 1101,
      "ĠDO": 1102,
      "Ġpouco": 1103,
      "Ġinc": 1104,
      "usical": 1105,
      "nota": 1106,
      "Ã©timas": 1107,
      "Ġacima": 1108,
      "Ġgrau": 1109,
      "Ġjunt": 1110,
      "diante": 1111,
      "Ġchamada": 1112,
      "ĠcomeÃ§ar": 1113,
      "compasso": 1114,
      "ĠÃºnica": 1115,
      "ĠpoderÃ¡": 1116,
      "ĠfÃ¡cil": 1117,
      "mÃºsica": 1118,
      "CapÃŃtulo": 1119,
      "Os": 1120,
      "gan": 1121,
      "ii": 1122,
      "liz": 1123,
      "lÃ¡ss": 1124,
      "nda": 1125,
      "rente": 1126,
      "Ġ8": 1127,
      "Ġigu": 1128,
      "Ġaos": 1129,
      "ntro": 1130,
      "ador": 1131,
      "Ġcomun": 1132,
      "Ġfun": 1133,
      "requ": 1134,
      "Ġsex": 1135,
      "Ġsepara": 1136,
      "Ġcer": 1137,
      "ĠmÃºsicas": 1138,
      "ĠDE": 1139,
      "Ġmaioria": 1140,
      "Ġrepet": 1141,
      "ĠterÃ§as": 1142,
      "ĠCirculo": 1143,
      "ĠCont": 1144,
      "ĠConhecer": 1145,
      "Ġmuitas": 1146,
      "ĠRIT": 1147,
      "ĠsÃ©timas": 1148,
      "ult": 1149,
      "âĢĿ.": 1150,
      "Ġpartes": 1151,
      "Ġsabe": 1152,
      "ĠunÃŃsson": 1153,
      "ĠprogressÃ£o": 1154,
      "Ġcompositores": 1155,
      "ĠTocar": 1156,
      "Ġdireita": 1157,
      "Ġbande": 1158,
      "ĠsecÃ§Ã£o": 1159,
      "ĠdeverÃ¡": 1160,
      "Ġtonalidade": 1161,
      "ĠDOIS": 1162,
      "ĠRITMO": 1163,
      "13": 1164,
      "15": 1165,
      "EntÃ£o": 1166,
      "bem": 1167,
      "ios": 1168,
      "tica": 1169,
      "uda": 1170,
      "Ġ+": 1171,
      "ques": 1172,
      "idades": 1173,
      "Ã³ria": 1174,
      "usas": 1175,
      "Ġmant": 1176,
      "Ġseis": 1177,
      "ĠclÃ¡ss": 1178,
      "Ġcomple": 1179,
      "Ġformas": 1180,
      "Ġserem": 1181,
      "ĠterÃ¡": 1182,
      "Ġseguir": 1183,
      "Ġdesenh": 1184,
      "Ġsegundo": 1185,
      "Ġgraus": 1186,
      "Ġteclas": 1187,
      "Ġharmonia": 1188,
      "ĠfÃ³rmulas": 1189,
      "gora": 1190,
      "Ġespeci": 1191,
      "Ġtrabalh": 1192,
      "Ġautent": 1193,
      "14": 1194,
      "16": 1195,
      "batid": 1196,
      "ck": 1197,
      "demos": 1198,
      "gra": 1199,
      "ias": 1200,
      "mes": 1201,
      "mit": 1202,
      "ontar": 1203,
      "por": 1204,
      "vis": 1205,
      "vol": 1206,
      "Ġ-": 1207,
      "Ġima": 1208,
      "ĠdinÃ¢m": 1209,
      "Ġaj": 1210,
      "Ġnun": 1211,
      "calas": 1212,
      "Ġdentro": 1213,
      "quen": 1214,
      "ime": 1215,
      "entra": 1216,
      "ino": 1217,
      "instrument": 1218,
      "Ġfim": 1219,
      "Ġess": 1220,
      "ÃŃder": 1221,
      "Ġcirculo": 1222,
      "rovis": 1223,
      "Ġoutra": 1224,
      "Ġoutro": 1225,
      "Ġinv": 1226,
      "ĠMa": 1227,
      "ĠMUS": 1228,
      "Ġtocadas": 1229,
      "Ġseguinte": 1230,
      "Ġconsegu": 1231,
      "Ġconhec": 1232,
      "ĠmetrÃ³n": 1233,
      "Ġdesc": 1234,
      "ĠsÃ©timo": 1235,
      "ĠÃłs": 1236,
      "Ġmesmas": 1237,
      "Ġimprovis": 1238,
      "Ġletras": 1239,
      "Ġpontu": 1240,
      "Ġconsidera": 1241,
      "Ġtorna": 1242,
      "Ġtornar": 1243,
      "Ġquarta": 1244,
      "ĠbraÃ§o": 1245,
      "Ã¡rios": 1246,
      "Ġregras": 1247,
      "Ġinclu": 1248,
      "ganiz": 1249,
      "Ġnunca": 1250,
      "ĠMUSICA": 1251,
      "MA": 1252,
      "bra": 1253,
      "fici": 1254,
      "ion": 1255,
      "lt": 1256,
      "pit": 1257,
      "susten": 1258,
      "Ġ=": 1259,
      "Ġacont": 1260,
      "Ġainda": 1261,
      "Ġsub": 1262,
      "Ġnes": 1263,
      "eros": 1264,
      "Ã©c": 1265,
      "Ġfrente": 1266,
      "Ġfrequ": 1267,
      "Ġestas": 1268,
      "ÃŃo": 1269,
      "ÃŃveis": 1270,
      "ona": 1271,
      "ecess": 1272,
      "ĠlÃŃder": 1273,
      "Ġsempre": 1274,
      "iros": 1275,
      "corr": 1276,
      "Ġrefer": 1277,
      "Ġseria": 1278,
      "Ġprin": 1279,
      "ilus": 1280,
      "ĠCada": 1281,
      "ĠEntÃ£o": 1282,
      "ĠbemÃ³is": 1283,
      "Ġmuda": 1284,
      "ĠPara": 1285,
      "azz": 1286,
      "Ġgrave": 1287,
      "Ġproduz": 1288,
      "ceber": 1289,
      "Ġpartir": 1290,
      "ĠAssim": 1291,
      "ĠcomeÃ§a": 1292,
      "Ġconsiste": 1293,
      "Ġchamado": 1294,
      "minante": 1295,
      "ĠcadÃªncias": 1296,
      "ĠEste": 1297,
      "Ġquartas": 1298,
      "Ġquarto": 1299,
      "Ġfrases": 1300,
      "Ġmarcas": 1301,
      "laro": 1302,
      "ĠprogressÃµes": 1303,
      "Ġsemicolcheia": 1304,
      "Ġimportante": 1305,
      "Ġrock": 1306,
      "ocÃª": 1307,
      "Ġpalavras": 1308,
      "Ġambas": 1309,
      "Ġquiser": 1310,
      "Ġcomuns": 1311,
      "Ġespecialmente": 1312,
      "entral": 1313,
      "AB": 1314,
      "COR": 1315,
      "DÃ³": 1316,
      "DES": 1317,
      "brar": 1318,
      "ed": 1319,
      "eitas": 1320,
      "iÃ£o": 1321,
      "nÃ£o": 1322,
      "pend": 1323,
      "Ġi": 1324,
      "aste": 1325,
      "Ġaque": 1326,
      "Ġanos": 1327,
      "Ġera": 1328,
      "Ġsup": 1329,
      "Ġnormalmente": 1330,
      "erc": 1331,
      "ert": 1332,
      "Ġtons": 1333,
      "quiv": 1334,
      "arte": 1335,
      "entar": 1336,
      "tal": 1337,
      "tam": 1338,
      "enos": 1339,
      "gular": 1340,
      "Ã¡vel": 1341,
      "Ġcentral": 1342,
      "intas": 1343,
      "ĠACOR": 1344,
      "ĠvÃ¡rios": 1345,
      "ĠsemÃŃnimas": 1346,
      "Ġforte": 1347,
      "Ġformu": 1348,
      "ĠTrÃŃ": 1349,
      "ĠserÃ¡": 1350,
      "ilh": 1351,
      "ĠEnt": 1352,
      "paÃ§Ã£o": 1353,
      "ĠFOR": 1354,
      "ĠperÃŃo": 1355,
      "Ġsegundas": 1356,
      "cep": 1357,
      "ĠNa": 1358,
      "ĠrÃ¡": 1359,
      "ĠdiminuÃŃ": 1360,
      "Ġdiminuto": 1361,
      "peto": 1362,
      "velmente": 1363,
      "ĠharmÃ³nica": 1364,
      "Ġforam": 1365,
      "incopaÃ§Ã£o": 1366,
      "lhe": 1367,
      "ĠposiÃ§Ã£o": 1368,
      "semit": 1369,
      "Ġcaso": 1370,
      "Ġterceiro": 1371,
      "primei": 1372,
      "ĠinversÃ£o": 1373,
      "Ġsemicolcheias": 1374,
      "Ġbase": 1375,
      "Ġrelativa": 1376,
      "Ġdupla": 1377,
      "cidental": 1378,
      "Ġpulsa": 1379,
      "Ġalguns": 1380,
      "Ġtabe": 1381,
      "Ġcoisas": 1382,
      "intervalo": 1383,
      "Ġpensar": 1384,
      "Ġseparadas": 1385,
      "Ġmanter": 1386,
      "ĠMaior": 1387,
      "quival": 1388,
      "ĠACORDES": 1389,
      "EM": 1390,
      "Repare": 1391,
      "cidade": 1392,
      "ga": 1393,
      "junt": 1394,
      "musical": 1395,
      "ne": 1396,
      "olo": 1397,
      "pon": 1398,
      "st": 1399,
      "untar": 1400,
      "ĠJ": 1401,
      "Ġloca": 1402,
      "Ġilus": 1403,
      "Ġdia": 1404,
      "ĠaÃŃ": 1405,
      "Ġequival": 1406,
      "rada": 1407,
      "Ġsons": 1408,
      "Ġnecess": 1409,
      "orma": 1410,
      "Ã©s": 1411,
      "entemente": 1412,
      "ina": 1413,
      "inua": 1414,
      "ende": 1415,
      "Ġestr": 1416,
      "ĠmÃºsico": 1417,
      "corde": 1418,
      "cip": 1419,
      "Ġcar": 1420,
      "Ġpequen": 1421,
      "ĠME": 1422,
      "ivo": 1423,
      "ĠserÃ£o": 1424,
      "Ġcontorno": 1425,
      "ĠComo": 1426,
      "ĠExistem": 1427,
      "Ġparece": 1428,
      "ĠOu": 1429,
      "Ġmostrado": 1430,
      "Ġpermit": 1431,
      "Ġsobe": 1432,
      "Ġgrande": 1433,
      "Ġutilizando": 1434,
      "Ġutilizados": 1435,
      "Ġdurante": 1436,
      "Ġche": 1437,
      "Ġorig": 1438,
      "Ġletra": 1439,
      "Ġoitavas": 1440,
      "Assim": 1441,
      "Ġouvir": 1442,
      "aixo": 1443,
      "ĠpadrÃµes": 1444,
      "dualmente": 1445,
      "pressÃ£o": 1446,
      "Ġantes": 1447,
      "Ġdividir": 1448,
      "Ã¡rio": 1449,
      "Ġduplo": 1450,
      "Ġpartituras": 1451,
      "Ġverdade": 1452,
      "Ġalgumas": 1453,
      "ĠconstruÃ§Ã£o": 1454,
      "Ġlon": 1455,
      "ĠunÃŃssono": 1456,
      "ĠclÃ¡ssica": 1457,
      "Ġautentica": 1458,
      "ĠmetrÃ³nomo": 1459,
      "Ġpontuada": 1460,
      "pitulo": 1461,
      "sustenido": 1462,
      "Ġacontece": 1463,
      "ĠEntender": 1464,
      "ĠrÃ¡p": 1465,
      "Ġestrut": 1466,
      "Po": 1467,
      "To": 1468,
      "ap": 1469,
      "cto": 1470,
      "he": 1471,
      "iÃªncia": 1472,
      "lÃŃn": 1473,
      "nd": 1474,
      "pri": 1475,
      "ru": 1476,
      "Ġult": 1477,
      "ase": 1478,
      "Ġagu": 1479,
      "Ġagora": 1480,
      "Ġenc": 1481,
      "Ġeles": 1482,
      "Ġpla": 1483,
      "Ġdec": 1484,
      "Ġdefin": 1485,
      "quÃª": 1486,
      "quatro": 1487,
      "emit": 1488,
      "est": 1489,
      "esta": 1490,
      "Ġob": 1491,
      "arÃ¡": 1492,
      "icamente": 1493,
      "tancia": 1494,
      "Ġfla": 1495,
      "enÃ§Ã£o": 1496,
      "ensÃ£o": 1497,
      "encia": 1498,
      "ÃŃamos": 1499,
      "Ġass": 1500,
      "Ġaspeto": 1501,
      "Ġcria": 1502,
      "Ġclaro": 1503,
      "Ġparar": 1504,
      "locidade": 1505,
      "ato": 1506,
      "maior": 1507,
      "Ġvai": 1508,
      "Ġvaria": 1509,
      "ĠvocÃª": 1510,
      "enores": 1511,
      "ĠIN": 1512,
      "Ġpodemos": 1513,
      "Ġindica": 1514,
      "ĠTÃ³nica": 1515,
      "Ġcontagem": 1516,
      "Ġconf": 1517,
      "Ġconjunt": 1518,
      "resc": 1519,
      "Ġalte": 1520,
      "Ġmuitos": 1521,
      "ĠPo": 1522,
      "Ġmov": 1523,
      "âĢĿ,": 1524,
      "Ġperfeito": 1525,
      "Ġdisc": 1526,
      "Ġdistancia": 1527,
      "ĠmelÃ³d": 1528,
      "Ġalguma": 1529,
      "Ġinvert": 1530,
      "Ġvibra": 1531,
      "Ġabaixo": 1532,
      "Ġpartitura": 1533,
      "Ġpedal": 1534,
      "Ġacidente": 1535,
      "ĠharmÃ³nico": 1536,
      "pendendo": 1537,
      "Ġformula": 1538,
      "Ġtabela": 1539,
      "Ġestrutura": 1540,
      "lÃŃnio": 1541,
      "..": 1542,
      "ALO": 1543,
      "Cont": 1544,
      "FÃ¡": 1545,
      "IV": 1546,
      "Ou": 1547,
      "RV": 1548,
      "culas": 1549,
      "div": 1550,
      "el": 1551,
      "fe": 1552,
      "gio": 1553,
      "ix": 1554,
      "ilo": 1555,
      "je": 1556,
      "ndas": 1557,
      "temos": 1558,
      "tempo": 1559,
      "ualmente": 1560,
      "vÃ©s": 1561,
      "Ġam": 1562,
      "Ġatra": 1563,
      "Ġaber": 1564,
      "Ġadiante": 1565,
      "Ġmei": 1566,
      "ĠsÃ©": 1567,
      "Ġsim": 1568,
      "Ġnada": 1569,
      "Ġtiver": 1570,
      "oriz": 1571,
      "esse": 1572,
      "Ġquase": 1573,
      "enta": 1574,
      "isso": 1575,
      "inas": 1576,
      "Ġfec": 1577,
      "enso": 1578,
      "regular": 1579,
      "Ġpautas": 1580,
      "ÃŃmb": 1581,
      "Ġseus": 1582,
      "vez": 1583,
      "Ġcla": 1584,
      "inta": 1585,
      "Ġlado": 1586,
      "ĠSÃ©timas": 1587,
      "trÃªs": 1588,
      "Ġcabe": 1589,
      "Ġcapitulo": 1590,
      "ĠMas": 1591,
      "usicais": 1592,
      "ĠTorn": 1593,
      "Ġcontinua": 1594,
      "Ġexistem": 1595,
      "Ġseguintes": 1596,
      "Ġconhecer": 1597,
      "ĠCA": 1598,
      "Ġnumero": 1599,
      "Ã©tima": 1600,
      "Ġho": 1601,
      "nce": 1602,
      "ncas": 1603,
      "Ġmelh": 1604,
      "Ġdesta": 1605,
      "ĠPer": 1606,
      "ulta": 1607,
      "Ġsoam": 1608,
      "ificar": 1609,
      "TERV": 1610,
      "ĠVI": 1611,
      "Ġfazem": 1612,
      "Ġfazendo": 1613,
      "Ġarmaduras": 1614,
      "Ġorganiz": 1615,
      "Ġleitor": 1616,
      "ĠespaÃ§o": 1617,
      "lÃ³gio": 1618,
      "ĠuniÃ£o": 1619,
      "ĠEstas": 1620,
      "ĠÃºlt": 1621,
      "Ġencontra": 1622,
      "Ġantig": 1623,
      "conhecer": 1624,
      "Ġespecifica": 1625,
      "Ġbrancas": 1626,
      "Ġacaba": 1627,
      "Ġarco": 1628,
      "Ġideia": 1629,
      "encialmente": 1630,
      "ĠalguÃ©m": 1631,
      "Ġverdad": 1632,
      "ĠQuintas": 1633,
      "Ġdevemos": 1634,
      "Ġaprender": 1635,
      "Ġescritas": 1636,
      "questra": 1637,
      "Ġcompletamente": 1638,
      "Ġdesenho": 1639,
      "Ġimprovisar": 1640,
      "Ġprincip": 1641,
      "Ġchegar": 1642,
      "ĠINTERV": 1643,
      "ALOS": 1644,
      "Ġmeio": 1645,
      "Ġfech": 1646,
      "ĠINTERVALOS": 1647,
      "DIA": 1648,
      "Existem": 1649,
      "Montar": 1650,
      "Na": 1651,
      "ONT": 1652,
      "TT": 1653,
      "acorde": 1654,
      "br": 1655,
      "bla": 1656,
      "clave": 1657,
      "ib": 1658,
      "ip": 1659,
      "iar": 1660,
      "lter": 1661,
      "nca": 1662,
      "neira": 1663,
      "oa": 1664,
      "significa": 1665,
      "ual": 1666,
      "ĠÃ³": 1667,
      "Ġaqui": 1668,
      "Ġaulas": 1669,
      "nterval": 1670,
      "ĠmÃŃnimas": 1671,
      "Ġmenos": 1672,
      "Ġpia": 1673,
      "ratica": 1674,
      "Ġsal": 1675,
      "Ġsus": 1676,
      "cala": 1677,
      "osse": 1678,
      "Ġdependendo": 1679,
      "Ġtant": 1680,
      "ĠtÃ©c": 1681,
      "orus": 1682,
      "Ġocorr": 1683,
      "Ġocidental": 1684,
      "entos": 1685,
      "istura": 1686,
      "taque": 1687,
      "Ġfe": 1688,
      "Ġfusa": 1689,
      "rever": 1690,
      "itu": 1691,
      "Ã³s": 1692,
      "Ã³ri": 1693,
      "Ġbat": 1694,
      "ÃŃci": 1695,
      "Ġcur": 1696,
      "âĢĻ": 1697,
      "ecem": 1698,
      "ĠAcordes": 1699,
      "Ġvamos": 1700,
      "Ġtopo": 1701,
      "ĠMONT": 1702,
      "ĠrelÃ³gio": 1703,
      "Ġexec": 1704,
      "Ġprime": 1705,
      "Ġseguem": 1706,
      "Ġconce": 1707,
      "versa": 1708,
      "Ġalturas": 1709,
      "Ġmeia": 1710,
      "antes": 1711,
      "Ġdesa": 1712,
      "Ġdesde": 1713,
      "ĠPA": 1714,
      "Ġmod": 1715,
      "Ġmove": 1716,
      "Ġmover": 1717,
      "Ġmoder": 1718,
      "icia": 1719,
      "LODIA": 1720,
      "Ġvelocidade": 1721,
      "Ġaumentar": 1722,
      "beat": 1723,
      "ĠverÃ¡": 1724,
      "istÃ³ria": 1725,
      "Ġutilizado": 1726,
      "Ġpartida": 1727,
      "Ġjuntar": 1728,
      "armÃ³n": 1729,
      "Ġnaturais": 1730,
      "metade": 1731,
      "Ġcompostas": 1732,
      "Ġpreta": 1733,
      "Ã³rmulas": 1734,
      "Ġpontos": 1735,
      "Ġouvintes": 1736,
      "Ġadicionamos": 1737,
      "Ġnossa": 1738,
      "ĠnÃºmeros": 1739,
      "eral": 1740,
      "Ġanterior": 1741,
      "Ġestamos": 1742,
      "semibreve": 1743,
      "Ġcasa": 1744,
      "Ġcasas": 1745,
      "Ġaparecer": 1746,
      "Ġaparece": 1747,
      "Ġcordas": 1748,
      "Ġdividida": 1749,
      "Ġdizer": 1750,
      "prender": 1751,
      "Ġcolocar": 1752,
      "Ġprecisa": 1753,
      "Ġviol": 1754,
      "Este": 1755,
      "Ġpulso": 1756,
      "udiÃªncia": 1757,
      "Ġdetermina": 1758,
      "Ġpopular": 1759,
      "forma": 1760,
      "Ġaprende": 1761,
      "Ġfacto": 1762,
      "Ġjuntas": 1763,
      "Ġigual": 1764,
      "Ġiguais": 1765,
      "Ġsexto": 1766,
      "ĠContudo": 1767,
      "Ġbandeira": 1768,
      "Ġbandeiras": 1769,
      "batidas": 1770,
      "Ġimagem": 1771,
      "Ġajuda": 1772,
      "ĠMUSICAIS": 1773,
      "ercÃŃci": 1774,
      "tambÃ©m": 1775,
      "ĠFORMA": 1776,
      "Ġpequeno": 1777,
      "ĠMELODIA": 1778,
      "Ġplag": 1779,
      "Ġdiscut": 1780,
      "ĠatravÃ©s": 1781,
      "Ġclaves": 1782,
      "ĠcabeÃ§a": 1783,
      "Ġmelhor": 1784,
      "ntervalos": 1785,
      "raticar": 1786,
      "ĠtÃ©cn": 1787,
      "ĠMONTAR": 1788,
      "17": 1789,
      "Com": 1790,
      "FÃ³rmulas": 1791,
      "NA": 1792,
      "UR": 1793,
      "ac": 1794,
      "acordes": 1795,
      "dor": 1796,
      "dar": 1797,
      "dis": 1798,
      "eg": 1799,
      "ho": 1800,
      "rg": 1801,
      "rÃ©": 1802,
      "rup": 1803,
      "tos": 1804,
      "tiliz": 1805,
      "tÃ³nica": 1806,
      "vi": 1807,
      "vemente": 1808,
      "Ġelas": 1809,
      "Ġmem": 1810,
      "Ġmente": 1811,
      "ĠsincopaÃ§Ã£o": 1812,
      "cada": 1813,
      "Ġtre": 1814,
      "Ġtal": 1815,
      "Ġtinh": 1816,
      "ĠtensÃ£o": 1817,
      "esc": 1818,
      "escalas": 1819,
      "Ġolh": 1820,
      "Ġumas": 1821,
      "adura": 1822,
      "adÃªncia": 1823,
      "Ã©n": 1824,
      "ingu": 1825,
      "Ġnova": 1826,
      "Ġnomes": 1827,
      "Ġfeita": 1828,
      "Ġfusas": 1829,
      "Ġfosse": 1830,
      "envol": 1831,
      "Ġesco": 1832,
      "Ã¡mos": 1833,
      "Ã¡ria": 1834,
      "Ã¡lter": 1835,
      "itura": 1836,
      "Ġboa": 1837,
      "Ġmaneira": 1838,
      "dominante": 1839,
      "Ġsete": 1840,
      "Ãºsculas": 1841,
      "Ġparagem": 1842,
      "amil": 1843,
      "ĠAAB": 1844,
      "mais": 1845,
      "Ġvo": 1846,
      "Ġtodo": 1847,
      "anh": 1848,
      "ĠDe": 1849,
      "ĠDo": 1850,
      "ĠSemit": 1851,
      "Ġcausa": 1852,
      "Ġinicia": 1853,
      "ĠporquÃª": 1854,
      "Ġpeda": 1855,
      "Ġpelas": 1856,
      "ĠMe": 1857,
      "ĠMo": 1858,
      "iva": 1859,
      "Ġcontr": 1860,
      "Ġexper": 1861,
      "ĠexercÃŃci": 1862,
      "Ġsegue": 1863,
      "Ġseguida": 1864,
      "Ġinter": 1865,
      "ĠClave": 1866,
      "ĠEm": 1867,
      "Ġparecer": 1868,
      "uaÃ§Ãµes": 1869,
      "Ġha": 1870,
      "Ġhaste": 1871,
      "ĠhistÃ³ria": 1872,
      "tenÃ§Ã£o": 1873,
      "ĠPa": 1874,
      "Ġapto": 1875,
      "Ġquinto": 1876,
      "Ġsuavemente": 1877,
      "Ġgradualmente": 1878,
      "Ġutilizar": 1879,
      "Ġ32": 1880,
      "vavelmente": 1881,
      "Ġorquestra": 1882,
      "Ġcomposto": 1883,
      "Ġpretas": 1884,
      "Ġperfeitas": 1885,
      "Ġouvinte": 1886,
      "ĠprÃ³ximo": 1887,
      "Ġadicionar": 1888,
      "ĠEsta": 1889,
      "eiramente": 1890,
      "tivo": 1891,
      "Ġresto": 1892,
      "Ġmarca": 1893,
      "Ġbranca": 1894,
      "Ġterceira": 1895,
      "Ġacabar": 1896,
      "Ġsentido": 1897,
      "Ġsentimento": 1898,
      "Ġligadas": 1899,
      "ĠpossÃŃvel": 1900,
      "udar": 1901,
      "Ġtabla": 1902,
      "ĠbÃ¡sica": 1903,
      "ĠbÃ¡sico": 1904,
      "Ġpedir": 1905,
      "Ġcontinuar": 1906,
      "Ġpalavra": 1907,
      "Ġescrito": 1908,
      "Ġacidentes": 1909,
      "Notas": 1910,
      "Ġfunci": 1911,
      "bemol": 1912,
      "ĠdinÃ¢mica": 1913,
      "ĠdinÃ¢micas": 1914,
      "instrumento": 1915,
      "Ġconseguir": 1916,
      "Ġnessa": 1917,
      "ĠfrequÃªncia": 1918,
      "ĠTrÃŃade": 1919,
      "ĠperÃŃodo": 1920,
      "semitons": 1921,
      "ĠpulsaÃ§Ã£o": 1922,
      "rupo": 1923,
      "Ġultimo": 1924,
      "ĠdeclÃŃnio": 1925,
      "Ġaberta": 1926,
      "ÃŃmbolo": 1927,
      "ĠTornar": 1928,
      "Ġprincipal": 1929,
      "Ġtantas": 1930,
      "Ġexecuta": 1931,
      "rÃ©cia": 1932,
      "Ã¡lteras": 1933,
      "amiliar": 1934,
      ".,": 1935,
      "18": 1936,
      "20": 1937,
      "22": 1938,
      "Cada": 1939,
      "Ex": 1940,
      "Forma": 1941,
      "HÃ¡": 1942,
      "Isto": 1943,
      "INA": 1944,
      "OS": 1945,
      "Pa": 1946,
      "SÃ©timas": 1947,
      "TÃ³nica": 1948,
      "TrÃŃ": 1949,
      "ao": 1950,
      "aument": 1951,
      "abe": 1952,
      "bro": 1953,
      "dida": 1954,
      "ela": 1955,
      "figura": 1956,
      "feito": 1957,
      "gin": 1958,
      "iu": 1959,
      "iÃ§Ãµes": 1960,
      "jam": 1961,
      "mostra": 1962,
      "plica": 1963,
      "rimei": 1964,
      "simples": 1965,
      "tadas": 1966,
      "uro": 1967,
      "uadas": 1968,
      "uitas": 1969,
      "vent": 1970,
      "vam": 1971,
      "ĠX": 1972,
      "Ġdist": 1973,
      "Ġaf": 1974,
      "Ġag": 1975,
      "Ġataque": 1976,
      "ĠaudiÃªncia": 1977,
      "ĠmÃ£o": 1978,
      "Ġmin": 1979,
      "Ġpassos": 1980,
      "Ġpraticar": 1981,
      "Ġsu": 1982,
      "Ġsona": 1983,
      "Ġnem": 1984,
      "Ġneste": 1985,
      "ĠnÃŃvel": 1986,
      "caix": 1987,
      "osto": 1988,
      "erem": 1989,
      "Ġdez": 1990,
      "uman": 1991,
      "escala": 1992,
      "Ġonda": 1993,
      "adicion": 1994,
      "Ã©tr": 1995,
      "imbre": 1996,
      "Ġcomb": 1997,
      "ing": 1998,
      "idamente": 1999,
      "reg": 2000,
      "Ġessa": 2001,
      "alquer": 2002,
      "itmos": 2003,
      "iam": 2004,
      "Ġmai": 2005,
      "dois": 2006,
      "ÃŃp": 2007,
      "Ġcul": 2008,
      "iguras": 2009,
      "Ġdominante": 2010,
      "onias": 2011,
      "ĠlÃ¡": 2012,
      "ĠAl": 2013,
      "Ġvar": 2014,
      "Ġvir": 2015,
      "Ġtotal": 2016,
      "ĠSub": 2017,
      "Ġcomplica": 2018,
      "Ġponte": 2019,
      "Ġpegar": 2020,
      "Ġpelos": 2021,
      "ĠforÃ§a": 2022,
      "ĠTeor": 2023,
      "ĠTempo": 2024,
      "Ġrealmente": 2025,
      "Ġrece": 2026,
      "Ġconta": 2027,
      "Ġconte": 2028,
      "Ġexist": 2029,
      "ilar": 2030,
      "ĠCadÃªncia": 2031,
      "ĠEuro": 2032,
      "respon": 2033,
      "igamos": 2034,
      "notas": 2035,
      "Ġestes": 2036,
      "Ġestilo": 2037,
      "Ġhuman": 2038,
      "Ġalto": 2039,
      "Ġalgo": 2040,
      "ĠUtiliz": 2041,
      "Ġgrupo": 2042,
      "Ġdestas": 2043,
      "simo": 2044,
      "Ġsoar": 2045,
      "bel": 2046,
      "Ġverso": 2047,
      "Ġgraves": 2048,
      "ceis": 2049,
      "ĠNÃ£o": 2050,
      "Ġutilizada": 2051,
      "Ġdiminutas": 2052,
      "Ġexemplos": 2053,
      "Ġjazz": 2054,
      "Ġirregular": 2055,
      "ĠprÃ³pri": 2056,
      "ouver": 2057,
      "Ġoitavo": 2058,
      "Ġescreve": 2059,
      "Ġnosso": 2060,
      "Ġdivis": 2061,
      "Segu": 2062,
      "Ġteoristas": 2063,
      "ĠcomeÃ§amos": 2064,
      "Ã¢ncia": 2065,
      "ORES": 2066,
      "Ġresulta": 2067,
      "conhec": 2068,
      "Ġestabel": 2069,
      "Ġbaixa": 2070,
      "companh": 2071,
      "Ġtrans": 2072,
      "ĠaparÃªncia": 2073,
      "Ġaparecem": 2074,
      "ÃŃssimo": 2075,
      "Ġpalmas": 2076,
      "Ġtercinas": 2077,
      "endente": 2078,
      "ĠGrÃ©cia": 2079,
      "ariamente": 2080,
      "Ġregra": 2081,
      "ĠfÃ¡ceis": 2082,
      "Ġfalar": 2083,
      "Ġraiz": 2084,
      "duzir": 2085,
      "Ġident": 2086,
      "ĠpossÃŃveis": 2087,
      "Ġcontinuam": 2088,
      "Ġambos": 2089,
      "Ġlogo": 2090,
      "Ġcoisa": 2091,
      "intervalos": 2092,
      "Ġrepresenta": 2093,
      "Ġrepresentam": 2094,
      "Ġfacil": 2095,
      "adores": 2096,
      "batida": 2097,
      "Ġimagin": 2098,
      "imedia": 2099,
      "instrumentos": 2100,
      "Ġessas": 2101,
      "ĠinvenÃ§Ã£o": 2102,
      "Ġconhecimento": 2103,
      "Ġincluindo": 2104,
      "ĠMUSICAL": 2105,
      "ficial": 2106,
      "ilhar": 2107,
      "cepto": 2108,
      "ĠdiminuÃŃda": 2109,
      "primeira": 2110,
      "primeiro": 2111,
      "Ġnecessariamente": 2112,
      "ĠvariaÃ§Ã£o": 2113,
      "Ġconjunto": 2114,
      "Ġaltera": 2115,
      "Contudo": 2116,
      "divid": 2117,
      "Ġhoje": 2118,
      "ĠÃºltima": 2119,
      "Ġantiga": 2120,
      "Ġfechada": 2121,
      "ĠÃ³rg": 2122,
      "isturar": 2123,
      "Ġmemoriz": 2124,
      "Ġtinham": 2125,
      "ĠcontrÃ¡rio": 2126,
      "Ġinterpre": 2127,
      "Ġtablaturas": 2128,
      "Ġexecutante": 2129,
      "ventualmente": 2130,
      "19": 2131,
      "24": 2132,
      "26": 2133,
      "38": 2134,
      "AV": 2135,
      "Aqui": 2136,
      "AtenÃ§Ã£o": 2137,
      "Blues": 2138,
      "CULO": 2139,
      "DUR": 2140,
      "Hz": 2141,
      "IR": 2142,
      "INT": 2143,
      "LÃ¡": 2144,
      "LAS": 2145,
      "LAV": 2146,
      "NÃ£o": 2147,
      "OT": 2148,
      "Pro": 2149,
      "RMA": 2150,
      "ata": 2151,
      "bemos": 2152,
      "barras": 2153,
      "blem": 2154,
      "diminu": 2155,
      "fr": 2156,
      "feita": 2157,
      "gre": 2158,
      "ha": 2159,
      "ipar": 2160,
      "mp": 2161,
      "menor": 2162,
      "num": 2163,
      "nÃ§": 2164,
      "nal": 2165,
      "nÃŃsson": 2166,
      "ora": 2167,
      "piano": 2168,
      "pria": 2169,
      "penas": 2170,
      "ros": 2171,
      "semos": 2172,
      "sion": 2173,
      "torn": 2174,
      "uto": 2175,
      "vid": 2176,
      "vida": 2177,
      "za": 2178,
      "Ġig": 2179,
      "Ġisso": 2180,
      "Ġimedia": 2181,
      "Ġdar": 2182,
      "ĠdÃ¡": 2183,
      "Ġado": 2184,
      "Ġatr": 2185,
      "Ġach": 2186,
      "Ġeram": 2187,
      "Ġpasso": 2188,
      "Ġsit": 2189,
      "Ġson": 2190,
      "Ġsido": 2191,
      "ĠsÃŃmbolo": 2192,
      "cad": 2193,
      "ĠtÃ£o": 2194,
      "Ġtendo": 2195,
      "Ġtanto": 2196,
      "Ġtentar": 2197,
      "oras": 2198,
      "orte": 2199,
      "quando": 2200,
      "emo": 2201,
      "emamente": 2202,
      "arra": 2203,
      "entÃ£o": 2204,
      "entre": 2205,
      "entamente": 2206,
      "tantes": 2207,
      "inante": 2208,
      "Ġfra": 2209,
      "Ġfiguras": 2210,
      "ena": 2211,
      "rela": 2212,
      "Ġesse": 2213,
      "Ã¡g": 2214,
      "alidade": 2215,
      "Ġbom": 2216,
      "laÃ§Ã£o": 2217,
      "ÃŃf": 2218,
      "ÃŃr": 2219,
      "Ġsejam": 2220,
      "âĢľ": 2221,
      "Ġ17": 2222,
      "amento": 2223,
      "Ġouve": 2224,
      "onentes": 2225,
      "atis": 2226,
      "atura": 2227,
      "ecipar": 2228,
      "Ġlu": 2229,
      "Ġlem": 2230,
      "Ġlhe": 2231,
      "Ġlentamente": 2232,
      "ĠAB": 2233,
      "ĠARMA": 2234,
      "Ġvemos": 2235,
      "Ġtoda": 2236,
      "corre": 2237,
      "ĠDa": 2238,
      "ĠDuas": 2239,
      "ĠDiminu": 2240,
      "ĠSÃ£o": 2241,
      "ome": 2242,
      "omos": 2243,
      "tru": 2244,
      "tremamente": 2245,
      "toca": 2246,
      "todo": 2247,
      "tocar": 2248,
      "Ġtru": 2249,
      "Ġtraste": 2250,
      "Ġins": 2251,
      "izar": 2252,
      "ĠpeÃ§as": 2253,
      "ĠMusical": 2254,
      "ĠMenores": 2255,
      "ĠMusicais": 2256,
      "ĠTer": 2257,
      "pont": 2258,
      "Ġtocam": 2259,
      "Ġtocado": 2260,
      "Ġtocados": 2261,
      "Ġcontudo": 2262,
      "Ġexpres": 2263,
      "ĠexpressÃ£o": 2264,
      "Ġexplica": 2265,
      "Ġexcepto": 2266,
      "Ġextremamente": 2267,
      "Ġpres": 2268,
      "Ġsegurada": 2269,
      "ilidades": 2270,
      "Ġinteiro": 2271,
      "ĠCh": 2272,
      "ĠCIR": 2273,
      "ĠCLAV": 2274,
      "ĠEx": 2275,
      "Ġpares": 2276,
      "Ġestiver": 2277,
      "parar": 2278,
      "pautas": 2279,
      "Ġalca": 2280,
      "Ġmundo": 2281,
      "Ġmudar": 2282,
      "inha": 2283,
      "inho": 2284,
      "ĠgÃ©n": 2285,
      "Ġdeste": 2286,
      "Ġdesse": 2287,
      "Ġdesce": 2288,
      "Ġdesenvol": 2289,
      "ĠPiano": 2290,
      "Ġmostram": 2291,
      "Ġmostrar": 2292,
      "Ġmostramos": 2293,
      "Ġmodos": 2294,
      "Ġaplica": 2295,
      "Ġperto": 2296,
      "Ġperceber": 2297,
      "ulos": 2298,
      "ice": 2299,
      "icular": 2300,
      "Ġsoa": 2301,
      "Ġaumenta": 2302,
      "Ġsuave": 2303,
      "ĠNOT": 2304,
      "Ġutilizam": 2305,
      "contrar": 2306,
      "itarra": 2307,
      "Ġparticular": 2308,
      "Ġdurar": 2309,
      "Ġfazemos": 2310,
      "peÃ§a": 2311,
      "Ġcomposta": 2312,
      "Ġleitura": 2313,
      "ouv": 2314,
      "Ġsignificando": 2315,
      "ĠSegu": 2316,
      "Ġchamadas": 2317,
      "Ġchamados": 2318,
      "Ġouvimos": 2319,
      "Ġunidade": 2320,
      "Ġadicional": 2321,
      "Ġadicionado": 2322,
      "Ġadicionada": 2323,
      "Ġadicionais": 2324,
      "gressÃ£o": 2325,
      "posta": 2326,
      "Ġesteja": 2327,
      "ĠcomeÃ§ou": 2328,
      "mbos": 2329,
      "Ġresol": 2330,
      "Ġantecipar": 2331,
      "ĠQUINT": 2332,
      "avam": 2333,
      "Ġuso": 2334,
      "Ġtradicion": 2335,
      "Ġcorda": 2336,
      "Ġcorrespon": 2337,
      "ĠacentuaÃ§Ãµes": 2338,
      "Ġdizem": 2339,
      "Ġacabando": 2340,
      "Ġcolocada": 2341,
      "ĠprecisarÃ¡": 2342,
      "Ġpensa": 2343,
      "ĠTodas": 2344,
      "ĠNota": 2345,
      "Ġart": 2346,
      "Ġbases": 2347,
      "Ġbasta": 2348,
      "ĠrelaÃ§Ã£o": 2349,
      "Escalas": 2350,
      "Ġfalamos": 2351,
      "Ġcomummente": 2352,
      "Ġimportantes": 2353,
      "muito": 2354,
      "Ġabs": 2355,
      "Ġdeterminar": 2356,
      "lembrar": 2357,
      "Ġficar": 2358,
      "Ġjuntos": 2359,
      "Ġfundo": 2360,
      "ĠContem": 2361,
      "ĠunÃŃssonos": 2362,
      "udante": 2363,
      "grau": 2364,
      "ĠincluÃŃ": 2365,
      "edade": 2366,
      "Ġaqueles": 2367,
      "ĠTrÃŃades": 2368,
      "ĠperÃŃodos": 2369,
      "semitom": 2370,
      "ĠpulsaÃ§Ãµes": 2371,
      "Ġlocal": 2372,
      "Ġlocaliz": 2373,
      "ĠilusÃ³ria": 2374,
      "Ġequivalente": 2375,
      "Ġcarre": 2376,
      "Ġpermite": 2377,
      "Ġoriginal": 2378,
      "Ġlong": 2379,
      "ĠrÃ¡pido": 2380,
      "ĠrÃ¡pida": 2381,
      "Pode": 2382,
      "Ġencur": 2383,
      "estÃ£o": 2384,
      "Ġobtemos": 2385,
      "Ġflauta": 2386,
      "Ġflautas": 2387,
      "rescendo": 2388,
      "Ġinvertido": 2389,
      "Ġinvertidos": 2390,
      "ĠvibraÃ§Ã£o": 2391,
      "Outra": 2392,
      "ĠsÃ©culo": 2393,
      "Ġsimilar": 2394,
      "Ġsusp": 2395,
      "Ġocorrem": 2396,
      "Ġbater": 2397,
      "Ġprimeiros": 2398,
      "Ġconceitos": 2399,
      "Ġdesaf": 2400,
      "Ġmodifica": 2401,
      "eralmente": 2402,
      "Ġviolino": 2403,
      "ĠAABA": 2404,
      "ĠSemitom": 2405,
      "Ġpedais": 2406,
      "Ġexperi": 2407,
      "Ġhaver": 2408,
      "simplesmente": 2409,
      "ĠmaiÃºsculas": 2410,
      "Ġponteiros": 2411,
      "ilhares": 2412,
      "DURAS": 2413,
      "nalis": 2414,
      "ĠARMADURAS": 2415,
      "ĠCIRCULO": 2416,
      "ĠCLAVE": 2417,
      "ĠNOTAS": 2418,
      "ĠQUINTAS": 2419,
      "-Â": 2420,
      "21": 2421,
      "23": 2422,
      "34": 2423,
      "37": 2424,
      "Agora": 2425,
      "Da": 2426,
      "Desta": 2427,
      "Em": 2428,
      "ENT": 2429,
      "GR": 2430,
      "Intervalos": 2431,
      "MICA": 2432,
      "NS": 2433,
      "ONS": 2434,
      "PO": 2435,
      "Parte": 2436,
      "Re": 2437,
      "RÃ©": 2438,
      "SÃ": 2439,
      "Sol": 2440,
      "STT": 2441,
      "TA": 2442,
      "UnÃŃsson": 2443,
      "UTA": 2444,
      "apar": 2445,
      "ban": 2446,
      "cus": 2447,
      "cri": 2448,
      "cimento": 2449,
      "cendente": 2450,
      "dim": 2451,
      "dir": 2452,
      "difer": 2453,
      "faz": 2454,
      "fabe": 2455,
      "gamos": 2456,
      "gram": 2457,
      "iedade": 2458,
      "lig": 2459,
      "lificar": 2460,
      "mar": 2461,
      "menores": 2462,
      "musicais": 2463,
      "nj": 2464,
      "nÃºm": 2465,
      "of": 2466,
      "oma": 2467,
      "pp": 2468,
      "sup": 2469,
      "sivo": 2470,
      "ti": 2471,
      "tÃ©": 2472,
      "tada": 2473,
      "tÃ³n": 2474,
      "ticos": 2475,
      "tino": 2476,
      "tÃ¡vel": 2477,
      "uber": 2478,
      "vem": 2479,
      "var": 2480,
      "van": 2481,
      "vemos": 2482,
      "zÃ£o": 2483,
      "zona": 2484,
      "Ãī": 2485,
      "Ġk": 2486,
      "Ġiv": 2487,
      "Ġzona": 2488,
      "ĥO": 2489,
      "ŃâĢ": 2490,
      "aso": 2491,
      "Ġafin": 2492,
      "Ġacompanh": 2493,
      "Ġavan": 2494,
      "Ġer": 2495,
      "Ġele": 2496,
      "colch": 2497,
      "cobr": 2498,
      "ĠmÃº": 2499,
      "Ġmic": 2500,
      "Ġmenci": 2501,
      "Ġmilhares": 2502,
      "rado": 2503,
      "ramente": 2504,
      "Ġsi": 2505,
      "Ġsistem": 2506,
      "Ġnenh": 2507,
      "erficial": 2508,
      "Ġtiv": 2509,
      "Ġtorno": 2510,
      "Ġtarte": 2511,
      "Ġtimbre": 2512,
      "organiz": 2513,
      "quinta": 2514,
      "Ġcost": 2515,
      "espaÃ§": 2516,
      "essem": 2517,
      "estro": 2518,
      "Ġondas": 2519,
      "ĠquÃ£o": 2520,
      "adr": 2521,
      "aduras": 2522,
      "Ã£os": 2523,
      "icar": 2524,
      "Ã©dia": 2525,
      "Ã©todo": 2526,
      "entro": 2527,
      "tac": 2528,
      "inar": 2529,
      "inver": 2530,
      "inaÃ§Ã£o": 2531,
      "Ġflu": 2532,
      "Ġfeito": 2533,
      "Ġfeitas": 2534,
      "Ġfamiliar": 2535,
      "ens": 2536,
      "ide": 2537,
      "Ġestra": 2538,
      "Ã¡veis": 2539,
      "Ã³g": 2540,
      "ian": 2541,
      "Ġbata": 2542,
      "ÃŃdo": 2543,
      "ÃŃade": 2544,
      "ÃŃcil": 2545,
      "Ġcic": 2546,
      "ron": 2547,
      "ĠdanÃ§": 2548,
      "Ġdomin": 2549,
      "onam": 2550,
      "eclado": 2551,
      "ĠAdicion": 2552,
      "ĠAprender": 2553,
      "ĠAmbos": 2554,
      "Ġvista": 2555,
      "Ġvice": 2556,
      "olk": 2557,
      "ĠDINA": 2558,
      "ĠSÃ©tima": 2559,
      "ominante": 2560,
      "trÃŃade": 2561,
      "ĠIntervalos": 2562,
      "sobre": 2563,
      "Ġcomponentes": 2564,
      "ĠtrÃ¡s": 2565,
      "ĠinarmÃ³n": 2566,
      "Ġtema": 2567,
      "Ġtempos": 2568,
      "trabalh": 2569,
      "ifÃŃcil": 2570,
      "ĠTem": 2571,
      "ĠTons": 2572,
      "ĠTEM": 2573,
      "Ġrep": 2574,
      "Ġreconhecer": 2575,
      "Ġentanto": 2576,
      "Ġserve": 2577,
      "Ġcontra": 2578,
      "Ġcontamos": 2579,
      "Ġteremos": 2580,
      "Ġtermos": 2581,
      "Ġconec": 2582,
      "Ġconfor": 2583,
      "ilos": 2584,
      "Ġinteira": 2585,
      "ĠContar": 2586,
      "Ġpare": 2587,
      "Ġparec": 2588,
      "ĠOcidental": 2589,
      "utos": 2590,
      "Ġnumera": 2591,
      "Ġhouver": 2592,
      "Ġalta": 2593,
      "Ġalfabe": 2594,
      "Ġmuita": 2595,
      "Ġgira": 2596,
      "Ġdestru": 2597,
      "Ġdestino": 2598,
      "ĠPRO": 2599,
      "ĠParte": 2600,
      "ĠPrimei": 2601,
      "Ġmostrados": 2602,
      "ĠRe": 2603,
      "Ġpercep": 2604,
      "chorus": 2605,
      "Ġveja": 2606,
      "utilizadas": 2607,
      "Ġencaix": 2608,
      "Ġaumentando": 2609,
      "Ġacaso": 2610,
      "Ġveremos": 2611,
      "itavas": 2612,
      "Ġproc": 2613,
      "Ġprovavelmente": 2614,
      "Ġproblem": 2615,
      "Ġprovid": 2616,
      "ceÃ§Ã£o": 2617,
      "cele": 2618,
      "ĠNesta": 2619,
      "Ġutiliza": 2620,
      "ĠrÃŃt": 2621,
      "Ġritmos": 2622,
      "Ġdiminuir": 2623,
      "continu": 2624,
      "armonia": 2625,
      "ĠVer": 2626,
      "ibreves": 2627,
      "pel": 2628,
      "peia": 2629,
      "Ġguitarr": 2630,
      "Ġguitarras": 2631,
      "ĠassimÃ©tr": 2632,
      "upla": 2633,
      "upert": 2634,
      "mediante": 2635,
      "ĠcomposiÃ§Ã£o": 2636,
      "lex": 2637,
      "ĠprÃ³pria": 2638,
      "Ġatual": 2639,
      "Ġsabemos": 2640,
      "Ġouvido": 2641,
      "Ġfoca": 2642,
      "ĠprÃ³ximas": 2643,
      "dulaÃ§Ã£o": 2644,
      "Ġtornam": 2645,
      "Ġtornando": 2646,
      "ĠEstes": 2647,
      "assar": 2648,
      "unto": 2649,
      "ĠcomeÃ§ando": 2650,
      "Ã¢n": 2651,
      "Ã¢ne": 2652,
      "Ġ60": 2653,
      "Ġrestantes": 2654,
      "cons": 2655,
      "Ġespecif": 2656,
      "Ġescreveria": 2657,
      "compassos": 2658,
      "Ġmarte": 2659,
      "Ġmarcar": 2660,
      "segue": 2661,
      "Ġusar": 2662,
      "Ġusado": 2663,
      "Ġusamos": 2664,
      "Ġdividido": 2665,
      "Ġpessoa": 2666,
      "Ġsentir": 2667,
      "Ġliga": 2668,
      "Ġligaduras": 2669,
      "Ġprecisamente": 2670,
      "ĠGra": 2671,
      "ĠNotas": 2672,
      "ĠÃºnico": 2673,
      "ĠÃºnicas": 2674,
      "ESSÃ": 2675,
      "Ġrelativo": 2676,
      "Esta": 2677,
      "quiÃ¡lteras": 2678,
      "Ġideias": 2679,
      "Ġabor": 2680,
      "Ġpossib": 2681,
      "Ġdeterminado": 2682,
      "ĠsecÃ§Ãµes": 2683,
      "Ġcontinuamente": 2684,
      "Ġmontamos": 2685,
      "Ġmontados": 2686,
      "Ġmontagem": 2687,
      "Ġautom": 2688,
      "Ġficaria": 2689,
      "expressÃ£o": 2690,
      "Ġdevem": 2691,
      "Ġdevido": 2692,
      "ĠharmÃ³nicas": 2693,
      "ĠharmÃ³nicos": 2694,
      "000": 2695,
      "iii": 2696,
      "Ġsexta": 2697,
      "Ġsextas": 2698,
      "Ġcerta": 2699,
      "bemÃ³is": 2700,
      "Ġtrabalha": 2701,
      "Ġautenticas": 2702,
      "mesma": 2703,
      "porque": 2704,
      "Ġajudar": 2705,
      "Ġessencialmente": 2706,
      "Ġinvent": 2707,
      "Ġdescrever": 2708,
      "ltip": 2709,
      "Ġfrequentemente": 2710,
      "Ġproduzir": 2711,
      "ĠcomeÃ§aram": 2712,
      "Ġsuposto": 2713,
      "ertz": 2714,
      "ĠFORM": 2715,
      "Ġbaseada": 2716,
      "ĠMaiores": 2717,
      "oloque": 2718,
      "stitu": 2719,
      "ĠJo": 2720,
      "ĠJazz": 2721,
      "ĠdiatÃ³n": 2722,
      "Ġorigem": 2723,
      "Ġassus": 2724,
      "Ġassunto": 2725,
      "Ġindicar": 2726,
      "Ġconjuntos": 2727,
      "ĠPode": 2728,
      "ĠmelÃ³dico": 2729,
      "ĠmelÃ³dicas": 2730,
      "ĠvibraÃ§Ãµes": 2731,
      "...": 2732,
      "ĠsÃ©ri": 2733,
      "ĠCAP": 2734,
      "ĠPerceber": 2735,
      "Ġverdadeiramente": 2736,
      "Ġpian": 2737,
      "Ġpianos": 2738,
      "Ġsaltar": 2739,
      "Ġfeliz": 2740,
      "Ã³rio": 2741,
      "Ġcurta": 2742,
      "ĠPAUTA": 2743,
      "Ġaprendeu": 2744,
      "Ġplagal": 2745,
      "Ġplagais": 2746,
      "Ġdiscutimos": 2747,
      "ĠtÃ©cnica": 2748,
      "dores": 2749,
      "Ġtreino": 2750,
      "Ġtalvez": 2751,
      "inguagem": 2752,
      "Ġescolh": 2753,
      "Ġvoz": 2754,
      "ĠexercÃŃcios": 2755,
      "ĠPauta": 2756,
      "Ġfuncionam": 2757,
      "Pausas": 2758,
      "TrÃŃades": 2759,
      "ĠcombinaÃ§Ã£o": 2760,
      "Ġculturas": 2761,
      "ĠTeoria": 2762,
      "Ġrecebe": 2763,
      "ĠEuropeia": 2764,
      "Ġhumano": 2765,
      "Ġirregulares": 2766,
      "Ġfacilmente": 2767,
      "Ġimaginemos": 2768,
      "ĠÃ³rgÃ£o": 2769,
      "Ġigre": 2770,
      "Ġimediatamente": 2771,
      "Ġfracas": 2772,
      "relativa": 2773,
      "ÃŃficos": 2774,
      "Ġlembrar": 2775,
      "Ġalcance": 2776,
      "Ġabsol": 2777,
      "Ġcarregar": 2778,
      "-ÂŃâĢ": 2779,
      "ENTOS": 2780,
      "GRESSÃ": 2781,
      "UnÃŃssonos": 2782,
      "bande": 2783,
      "cobrir": 2784,
      "ĠmÃºltip": 2785,
      "Ġmencion": 2786,
      "ĠDINAMICA": 2787,
      "ĠTEMPO": 2788,
      "Ġalfabeto": 2789,
      "ĠPROGRESSÃ": 2790,
      "ĠrÃŃtm": 2791,
      "Ġpossibilidades": 2792,
      "-ÂŃâĢĲ": 2793,
      "ĠPROGRESSÃĥO": 2794,
      "28": 2795,
      "30": 2796,
      "31": 2797,
      "32": 2798,
      "35": 2799,
      "36": 2800,
      "50": 2801,
      "96": 2802,
      "AI": 2803,
      "Acordes": 2804,
      "Ainda": 2805,
      "Cad": 2806,
      "Claro": 2807,
      "DE": 2808,
      "Digamos": 2809,
      "ID": 2810,
      "LEM": 2811,
      "Me": 2812,
      "Mi": 2813,
      "Mas": 2814,
      "Mes": 2815,
      "Muitas": 2816,
      "NORES": 2817,
      "Padr": 2818,
      "SCA": 2819,
      "Semit": 2820,
      "aut": 2821,
      "acid": 2822,
      "aprender": 2823,
      "by": 2824,
      "bido": 2825,
      "bri": 2826,
      "cr": 2827,
      "cu": 2828,
      "circulo": 2829,
      "dam": 2830,
      "dade": 2831,
      "dido": 2832,
      "duas": 2833,
      "damente": 2834,
      "ee": 2835,
      "eles": 2836,
      "eja": 2837,
      "fat": 2838,
      "fras": 2839,
      "gm": 2840,
      "han": 2841,
      "ient": 2842,
      "ich": 2843,
      "iÃ¡lteras": 2844,
      "ke": 2845,
      "ll": 2846,
      "lic": 2847,
      "menos": 2848,
      "nim": 2849,
      "ndes": 2850,
      "numa": 2851,
      "normalmente": 2852,
      "ncontrar": 2853,
      "oi": 2854,
      "ok": 2855,
      "ook": 2856,
      "pin": 2857,
      "passos": 2858,
      "pira": 2859,
      "ry": 2860,
      "sas": 2861,
      "sos": 2862,
      "sar": 2863,
      "sendo": 2864,
      "sÃŃvel": 2865,
      "sincopaÃ§Ã£o": 2866,
      "sÃ©tima": 2867,
      "tu": 2868,
      "tÃ³": 2869,
      "tiz": 2870,
      "til": 2871,
      "titu": 2872,
      "tho": 2873,
      "tÃŃssimo": 2874,
      "tÃ³rio": 2875,
      "uÃ§Ã£o": 2876,
      "uitarra": 2877,
      "ven": 2878,
      "via": 2879,
      "vido": 2880,
      "Ãł": 2881,
      "Ġim": 2882,
      "ĠÃ¡": 2883,
      "ĠdÃ©c": 2884,
      "asta": 2885,
      "assim": 2886,
      "Ġagar": 2887,
      "Ġadiv": 2888,
      "Ġafe": 2889,
      "Ġel": 2890,
      "Ġelem": 2891,
      "Ġeventualmente": 2892,
      "cos": 2893,
      "raÃ§Ã£o": 2894,
      "rados": 2895,
      "Ġsimp": 2896,
      "Ġsendo": 2897,
      "Ġsur": 2898,
      "Ġnisso": 2899,
      "erica": 2900,
      "erÃ¡": 2901,
      "erram": 2902,
      "erfeita": 2903,
      "Ġtar": 2904,
      "Ġtub": 2905,
      "orig": 2906,
      "oridade": 2907,
      "ume": 2908,
      "Ġcount": 2909,
      "ĠcoraÃ§Ã£o": 2910,
      "espec": 2911,
      "estiv": 2912,
      "Ġond": 2913,
      "Ġocorre": 2914,
      "aros": 2915,
      "arem": 2916,
      "artas": 2917,
      "Ġquanto": 2918,
      "Ġquais": 2919,
      "ĠquestÃ£o": 2920,
      "Ã©u": 2921,
      "Ã©re": 2922,
      "imentar": 2923,
      "tant": 2924,
      "tain": 2925,
      "taÃ§Ã£o": 2926,
      "taram": 2927,
      "taliz": 2928,
      "ine": 2929,
      "inos": 2930,
      "indica": 2931,
      "Ġnov": 2932,
      "Ġnovas": 2933,
      "Ġfiz": 2934,
      "Ġfaria": 2935,
      "Ġfilos": 2936,
      "Ġferram": 2937,
      "ensa": 2938,
      "idar": 2939,
      "guns": 2940,
      "reci": 2941,
      "refer": 2942,
      "Ġesqu": 2943,
      "Ġespe": 2944,
      "aladas": 2945,
      "itada": 2946,
      "itivo": 2947,
      "itÃ¡g": 2948,
      "Ã³x": 2949,
      "Ġbar": 2950,
      "Ġblo": 2951,
      "uso": 2952,
      "Ġmaestro": 2953,
      "donda": 2954,
      "Ġpapel": 2955,
      "Ġsequ": 2956,
      "veram": 2957,
      "Ġaspec": 2958,
      "Ġascendente": 2959,
      "Ġcem": 2960,
      "Ġclas": 2961,
      "rom": 2962,
      "ĠdaÃŃ": 2963,
      "Ġdaque": 2964,
      "Ġnaque": 2965,
      "âĢĵ": 2966,
      "Ġdobro": 2967,
      "Ġparale": 2968,
      "into": 2969,
      "aticamente": 2970,
      "ecut": 2971,
      "ĠlÃª": 2972,
      "Ġlindo": 2973,
      "Ġlista": 2974,
      "ĠlÃ³g": 2975,
      "Ġlidar": 2976,
      "ĠAS": 2977,
      "ĠAc": 2978,
      "ĠAg": 2979,
      "ĠAr": 2980,
      "ĠAument": 2981,
      "ĠArmad": 2982,
      "ĠAcorde": 2983,
      "ĠApenas": 2984,
      "mana": 2985,
      "Ġvem": 2986,
      "Ġvia": 2987,
      "Ġvio": 2988,
      "Ġtoc": 2989,
      "Ġtoque": 2990,
      "Ġsemibreves": 2991,
      "irem": 2992,
      "and": 2993,
      "ĠDA": 2994,
      "ĠDec": 2995,
      "ĠDominante": 2996,
      "ĠDupla": 2997,
      "ĠSem": 2998,
      "ĠSÃ³": 2999,
      "ĠSimples": 3000,
      "ĠSupert": 3001,
      "ĠIn": 3002,
      "cios": 3003,
      "ciÃªncia": 3004,
      "Ġcompor": 3005,
      "Ġpoco": 3006,
      "Ġpodia": 3007,
      "Ġcam": 3008,
      "Ġcara": 3009,
      "Ġcand": 3010,
      "Ġinde": 3011,
      "Ġindis": 3012,
      "Ġindivid": 3013,
      "izaÃ§Ã£o": 3014,
      "Ġpegamos": 3015,
      "ĠMuitas": 3016,
      "ĠMisturar": 3017,
      "ĠMAI": 3018,
      "ivas": 3019,
      "Ġfortes": 3020,
      "ĠTerc": 3021,
      "Ġrequer": 3022,
      "Ġregres": 3023,
      "Ġregular": 3024,
      "Ġrearra": 3025,
      "Ġrelembrar": 3026,
      "Ġredonda": 3027,
      "pode": 3028,
      "pouco": 3029,
      "Ġentender": 3030,
      "Ġtocamos": 3031,
      "Ġtocando": 3032,
      "Ġcontras": 3033,
      "Ġcontada": 3034,
      "ĠcontÃ©m": 3035,
      "Ġcontendo": 3036,
      "Ġprim": 3037,
      "Ġpress": 3038,
      "seu": 3039,
      "Ġterem": 3040,
      "Ġteria": 3041,
      "Ġinterior": 3042,
      "ĠintenÃ§Ã£o": 3043,
      "ĠCome": 3044,
      "ĠColoque": 3045,
      "ĠELEM": 3046,
      "ĠESCA": 3047,
      "veremos": 3048,
      "ĠOS": 3049,
      "Ġestiv": 3050,
      "Ġestudante": 3051,
      "pauta": 3052,
      "uais": 3053,
      "Ġhip": 3054,
      "Ġhertz": 3055,
      "importa": 3056,
      "Ġmedida": 3057,
      "inhas": 3058,
      "Ġgos": 3059,
      "Ġgrup": 3060,
      "Ġdessa": 3061,
      "Ġdestes": 3062,
      "Ġdesvi": 3063,
      "inuto": 3064,
      "ĠPed": 3065,
      "ĠPitÃ¡g": 3066,
      "Ġmostrada": 3067,
      "Ġmostradas": 3068,
      "ĠRitmo": 3069,
      "Ġmode": 3070,
      "Ġmonte": 3071,
      "ĠmodulaÃ§Ã£o": 3072,
      "ĠapÃ³s": 3073,
      "Ġapreci": 3074,
      "Ġpercus": 3075,
      "cham": 3076,
      "ulada": 3077,
      "ulsivo": 3078,
      "ĠtocarÃ¡": 3079,
      "Ġsustenida": 3080,
      "Ġsoz": 3081,
      "Ġveio": 3082,
      "Quintas": 3083,
      "Qualquer": 3084,
      "QuiÃ¡lteras": 3085,
      "Ġaumentadas": 3086,
      "Ġaumentados": 3087,
      "Ġace": 3088,
      "ĠversÃ£o": 3089,
      "Ġvertica": 3090,
      "Ġgravar": 3091,
      "Ġprogre": 3092,
      "ĠNuma": 3093,
      "Ġdiminui": 3094,
      "Ġdiminuindo": 3095,
      "contra": 3096,
      "armadura": 3097,
      "ĠVocÃª": 3098,
      "ĠirÃ£o": 3099,
      "Ġchap": 3100,
      "part": 3101,
      "metrÃ³n": 3102,
      "ĠcomposiÃ§Ãµes": 3103,
      "Ġprefer": 3104,
      "Ġpreoc": 3105,
      "leÃ§Ã£o": 3106,
      "letras": 3107,
      "Ġimpr": 3108,
      "Ġimpres": 3109,
      "Ġnaturalmente": 3110,
      "terc": 3111,
      "Ġleva": 3112,
      "outras": 3113,
      "compos": 3114,
      "Ġpadron": 3115,
      "Ġtirar": 3116,
      "ĠpontuaÃ§Ã£o": 3117,
      "Ġnascimento": 3118,
      "Ġconson": 3119,
      "Ġconsistem": 3120,
      "Ġconstitu": 3121,
      "Ġconsecut": 3122,
      "duÃ§Ã£o": 3123,
      "Ġunidas": 3124,
      "Ġuniver": 3125,
      "Ġadiciona": 3126,
      "Ġadicionando": 3127,
      "ĠÃºtil": 3128,
      "Ġencontram": 3129,
      "QUATRO": 3130,
      "Ġresum": 3131,
      "Ġresposta": 3132,
      "cabar": 3133,
      "ĠespecÃŃficos": 3134,
      "semÃŃnima": 3135,
      "Ġdissemos": 3136,
      "Ġcriada": 3137,
      "Ġquantas": 3138,
      "Ġquantos": 3139,
      "Ġusam": 3140,
      "Ġusadas": 3141,
      "ĠBlues": 3142,
      "ĠBee": 3143,
      "Ġcorpo": 3144,
      "Ġacentuadas": 3145,
      "ĠcontarÃŃamos": 3146,
      "Ġtercina": 3147,
      "Ġdizemos": 3148,
      "prÃ³x": 3149,
      "Ġcolocamos": 3150,
      "Ġligadura": 3151,
      "Ġprecisar": 3152,
      "ĠGre": 3153,
      "ĠGuitarra": 3154,
      "intetiz": 3155,
      "ĠTodos": 3156,
      "Ġregist": 3157,
      "Ġarte": 3158,
      "ĠencontrarÃ¡": 3159,
      "Estes": 3160,
      "ferior": 3161,
      "Ġfala": 3162,
      "Ġvoltar": 3163,
      "Ġrap": 3164,
      "ĠrazÃ£o": 3165,
      "Ġraramente": 3166,
      "muitas": 3167,
      "perceber": 3168,
      "Ġromana": 3169,
      "encial": 3170,
      "ock": 3171,
      "ĠdireÃ§Ã£o": 3172,
      "Ġqueremos": 3173,
      "ĠbÃ¡sicas": 3174,
      "ĠbÃ¡sicos": 3175,
      "Ġpedido": 3176,
      "Ġmontado": 3177,
      "USAS": 3178,
      "lement": 3179,
      "Ġdeveria": 3180,
      "inÃ¢mica": 3181,
      "ĠconstruÃŃ": 3182,
      "Ġconstruir": 3183,
      "exatamente": 3184,
      "ĠQuinta": 3185,
      "Ġrepresentadas": 3186,
      "produzir": 3187,
      "Ġcerca": 3188,
      "Ġcerto": 3189,
      "Ġrepetida": 3190,
      "ultado": 3191,
      "Ġtrabalho": 3192,
      "Ġtrabalhar": 3193,
      "gradualmente": 3194,
      "Ġinventa": 3195,
      "Ġconsegue": 3196,
      "Ġconseguem": 3197,
      "Ġconhecido": 3198,
      "ĠmetrÃ³nomos": 3199,
      "Ġdescer": 3200,
      "Ġpontuadas": 3201,
      "Ġconsiderado": 3202,
      "Ġconsiderada": 3203,
      "Ġconsiderados": 3204,
      "Ġsubir": 3205,
      "Ġsubstitu": 3206,
      "Ġnesta": 3207,
      "Ġnesse": 3208,
      "Ġrefere": 3209,
      "Ġreferido": 3210,
      "Ġreferencia": 3211,
      "Ġmudan": 3212,
      "Ġaquela": 3213,
      "Ġsuperior": 3214,
      "Ġsuperficial": 3215,
      "ilha": 3216,
      "Ġbaseado": 3217,
      "ponÃŃvel": 3218,
      "Ġilustra": 3219,
      "ĠilusÃ³ri": 3220,
      "inaÃ§Ãµes": 3221,
      "Ġpequena": 3222,
      "ĠMENORES": 3223,
      "Ġdividirmos": 3224,
      "Ġlongo": 3225,
      "Ġlonga": 3226,
      "Todas": 3227,
      "Todos": 3228,
      "apenas": 3229,
      "priado": 3230,
      "Ġagudo": 3231,
      "Ġaguda": 3232,
      "Ġagudas": 3233,
      "Ġenche": 3234,
      "Ġdefinido": 3235,
      "Ġconfun": 3236,
      "Ġmovemos": 3237,
      "feitos": 3238,
      "Ġamig": 3239,
      "Ġtivermos": 3240,
      "ĠCAI": 3241,
      "Ġencontradas": 3242,
      "Ġespecificamente": 3243,
      "Ġverdadeira": 3244,
      "Ġchegarmos": 3245,
      "Ġsustain": 3246,
      "ĠPAUSAS": 3247,
      "Ġmodernos": 3248,
      "Ġmoderna": 3249,
      "Ġviolinos": 3250,
      "Ġpopulares": 3251,
      "Ġaprenderam": 3252,
      "acent": 3253,
      "Ġtreinar": 3254,
      "escrita": 3255,
      "Ġolhos": 3256,
      "Ġolhar": 3257,
      "ĠMediante": 3258,
      "ĠexercÃŃcio": 3259,
      "Ġfunciona": 3260,
      "Existe": 3261,
      "ĠXV": 3262,
      "Ġagrup": 3263,
      "Ġsuc": 3264,
      "Ġsonata": 3265,
      "Ġsonatas": 3266,
      "adicionada": 3267,
      "Ġvariedade": 3268,
      "ĠSubdominante": 3269,
      "ĠSubmediante": 3270,
      "Ġexistirem": 3271,
      "ĠUtilizando": 3272,
      "ĠprÃ³prio": 3273,
      "ĠprÃ³prias": 3274,
      "ĠdivisÃ£o": 3275,
      "Segundas": 3276,
      "Ġresultante": 3277,
      "Ġestabelec": 3278,
      "Ġestabelecer": 3279,
      "Ġidentificar": 3280,
      "Ġmemorizar": 3281,
      "ProgressÃ£o": 3282,
      "ĠatrÃ¡s": 3283,
      "Ġachar": 3284,
      "ĠsituaÃ§Ã£o": 3285,
      "Ġsonoridade": 3286,
      "cadÃªncias": 3287,
      "atisf": 3288,
      "atural": 3289,
      "Ġlugar": 3290,
      "ĠABA": 3291,
      "ĠDaÃŃ": 3292,
      "ĠDiminuto": 3293,
      "Ġtruque": 3294,
      "ĠTerÃ§as": 3295,
      "Ġexplicar": 3296,
      "ĠChorus": 3297,
      "ĠExiste": 3298,
      "ĠgÃ©nero": 3299,
      "ĠresoluÃ§Ã£o": 3300,
      "Ġtradicional": 3301,
      "Ġartistas": 3302,
      "ĠincluÃŃdas": 3303,
      "Ġlonge": 3304,
      "Ġsuspenso": 3305,
      "Ġbateria": 3306,
      "Ġdesafi": 3307,
      "Reconhecer": 3308,
      "diferentes": 3309,
      "fazer": 3310,
      "superior": 3311,
      "ĠkHz": 3312,
      "ĠavanÃ§": 3313,
      "colcheias": 3314,
      "Ġsistema": 3315,
      "Ġnenhuma": 3316,
      "Ġtivesse": 3317,
      "Ġtornou": 3318,
      "Ġcostuma": 3319,
      "espaÃ§os": 3320,
      "tacular": 3321,
      "inversÃ£o": 3322,
      "Ġfluente": 3323,
      "Ġestrada": 3324,
      "Ġdominantes": 3325,
      "ĠAdicionar": 3326,
      "Ġrepente": 3327,
      "ĠconfortÃ¡vel": 3328,
      "ĠpercepÃ§Ã£o": 3329,
      "Ġprovidenci": 3330,
      "celerar": 3331,
      "ĠVerso": 3332,
      "Ġguitarristas": 3333,
      "ĠassimÃ©tricas": 3334,
      "considera": 3335,
      "Ġautomaticamente": 3336,
      "ĠsÃ©rie": 3337,
      "Ġfelizes": 3338,
      "Ġigreja": 3339,
      "bandeiras": 3340,
      "ĠmÃºltiplas": 3341,
      "ĠmencionÃ¡mos": 3342,
      "ĠrÃŃtmica": 3343,
      "CadÃªncias": 3344,
      "Mesmo": 3345,
      "damental": 3346,
      "thoven": 3347,
      "Ġtubos": 3348,
      "origem": 3349,
      "Ġcountry": 3350,
      "estiver": 3351,
      "Ġondular": 3352,
      "Ã©rebro": 3353,
      "Ġfilosof": 3354,
      "Ġparalelas": 3355,
      "ĠArmaduras": 3356,
      "ĠSupertÃ³nica": 3357,
      "Ġpodiam": 3358,
      "ĠMAIORES": 3359,
      "Ġrearranj": 3360,
      "Ġpression": 3361,
      "ĠELEMENTOS": 3362,
      "ĠESCALAS": 3363,
      "Ġgrupos": 3364,
      "ĠPedal": 3365,
      "ĠPitÃ¡goras": 3366,
      "ĠchapÃ©u": 3367,
      "ĠBeethoven": 3368,
      "ĠilusÃ³rias": 3369,
      ")-": 3370,
      "-(": 3371,
      ".>": 3372,
      ".):": 3373,
      "25": 3374,
      "27": 3375,
      "29": 3376,
      "33": 3377,
      "500": 3378,
      "80": 3379,
      "AL": 3380,
      "Ao": 3381,
      "Adicion": 3382,
      "Antes": 3383,
      "Apenas": 3384,
      "AtÃ©": 3385,
      "CB": 3386,
      "Ch": 3387,
      "Cor": 3388,
      "Con": 3389,
      "CIA": 3390,
      "Cand": 3391,
      "DinÃ¢m": 3392,
      "EOR": 3393,
      "Encontrar": 3394,
      "Fa": 3395,
      "FINA": 3396,
      "Geralmente": 3397,
      "Harmonia": 3398,
      "II": 3399,
      "IZ": 3400,
      "Jazz": 3401,
      "LAR": 3402,
      "Lul": 3403,
      "MP": 3404,
      "Mo": 3405,
      "Mu": 3406,
      "Mar": 3407,
      "MÃºs": 3408,
      "Misturar": 3409,
      "Numa": 3410,
      "Normalmente": 3411,
      "NID": 3412,
      "NCIA": 3413,
      "OP": 3414,
      "Ode": 3415,
      "Ocas": 3416,
      "OMP": 3417,
      "Par": 3418,
      "Primei": 3419,
      "Qua": 3420,
      "Ritmo": 3421,
      "Ritmos": 3422,
      "Roma": 3423,
      "Rock": 3424,
      "SO": 3425,
      "Si": 3426,
      "Sem": 3427,
      "Sub": 3428,
      "SÃ©tima": 3429,
      "TS": 3430,
      "Tom": 3431,
      "Tons": 3432,
      "TambÃ©m": 3433,
      "Tempo": 3434,
      "ULAS": 3435,
      "ULAR": 3436,
      "Ver": 3437,
      "Vamos": 3438,
      "You": 3439,
      "af": 3440,
      "ag": 3441,
      "aos": 3442,
      "aum": 3443,
      "ave": 3444,
      "aram": 3445,
      "aber": 3446,
      "apro": 3447,
      "audiÃªncia": 3448,
      "acompanh": 3449,
      "acabar": 3450,
      "cer": 3451,
      "cente": 3452,
      "cter": 3453,
      "crever": 3454,
      "cÃŃp": 3455,
      "culos": 3456,
      "dura": 3457,
      "dentes": 3458,
      "dista": 3459,
      "darÃ¡": 3460,
      "dÃŃamos": 3461,
      "difÃŃcil": 3462,
      "elh": 3463,
      "efici": 3464,
      "fa": 3465,
      "ff": 3466,
      "flu": 3467,
      "final": 3468,
      "frente": 3469,
      "frequ": 3470,
      "familiar": 3471,
      "gas": 3472,
      "gia": 3473,
      "gro": 3474,
      "gÃªncia": 3475,
      "gante": 3476,
      "genh": 3477,
      "gÃŃp": 3478,
      "gens": 3479,
      "hm": 3480,
      "her": 3481,
      "harm": 3482,
      "hece": 3483,
      "houver": 3484,
      "iÃ©": 3485,
      "irar": 3486,
      "iber": 3487,
      "ivelmente": 3488,
      "iÃ¢n": 3489,
      "lma": 3490,
      "lifica": 3491,
      "lista": 3492,
      "linguagem": 3493,
      "linhas": 3494,
      "mÃ£o": 3495,
      "mpar": 3496,
      "mÃŃnimas": 3497,
      "nas": 3498,
      "nso": 3499,
      "ndos": 3500,
      "necess": 3501,
      "nbeat": 3502,
      "nho": 3503,
      "nome": 3504,
      "natural": 3505,
      "oul": 3506,
      "oloca": 3507,
      "pas": 3508,
      "pal": 3509,
      "pul": 3510,
      "pons": 3511,
      "pÃ³s": 3512,
      "ptadas": 3513,
      "pÃŃr": 3514,
      "passar": 3515,
      "rb": 3516,
      "rÃ¡": 3517,
      "rÃªs": 3518,
      "rquestra": 3519,
      "rÃ¢n": 3520,
      "su": 3521,
      "ser": 3522,
      "sent": 3523,
      "sin": 3524,
      "sal": 3525,
      "sec": 3526,
      "sÃ©t": 3527,
      "sua": 3528,
      "sifica": 3529,
      "semp": 3530,
      "spe": 3531,
      "sÃ©timas": 3532,
      "siva": 3533,
      "tem": 3534,
      "tre": 3535,
      "tÃ¡": 3536,
      "tente": 3537,
      "ton": 3538,
      "tado": 3539,
      "tido": 3540,
      "tun": 3541,
      "temp": 3542,
      "ticas": 3543,
      "tÃªm": 3544,
      "tonal": 3545,
      "tÃŃveis": 3546,
      "tÃ¢ncia": 3547,
      "teclado": 3548,
      "uem": 3549,
      "uar": 3550,
      "ute": 3551,
      "unte": 3552,
      "upe": 3553,
      "vir": 3554,
      "vendo": 3555,
      "vio": 3556,
      "vimento": 3557,
      "wnbeat": 3558,
      "xas": 3559,
      "xta": 3560,
      "xtas": 3561,
      "xada": 3562,
      "ze": 3563,
      "zo": 3564,
      "zeros": 3565,
      "zel": 3566,
      "zzo": 3567,
      "ÃĢ": 3568,
      "Ãĵ": 3569,
      "Ġ0": 3570,
      "ĠW": 3571,
      "ĠÃŃ": 3572,
      "Ġras": 3573,
      "Ġur": 3574,
      "Ġiii": 3575,
      "Ġdu": 3576,
      "Ġder": 3577,
      "Ġdim": 3578,
      "Ġdado": 3579,
      "Ġdig": 3580,
      "Ġderem": 3581,
      "Ġdigamos": 3582,
      "ĠdifÃŃcil": 3583,
      "asicamente": 3584,
      "Ġad": 3585,
      "Ġabre": 3586,
      "Ġano": 3587,
      "Ġanda": 3588,
      "ĠatenÃ§Ã£o": 3589,
      "Ġauto": 3590,
      "Ġanalis": 3591,
      "ntado": 3592,
      "ntidade": 3593,
      "Ġela": 3594,
      "cois": 3595,
      "corar": 3596,
      "cope": 3597,
      "come": 3598,
      "coloca": 3599,
      "cost": 3600,
      "Ġmil": 3601,
      "ĠmÃŃn": 3602,
      "Ġmeias": 3603,
      "Ġmistura": 3604,
      "ĠmÃ£os": 3605,
      "ĠmÃ©todo": 3606,
      "Ġminuto": 3607,
      "Ġpu": 3608,
      "Ġpub": 3609,
      "ĠpÃ¡ss": 3610,
      "Ġpassar": 3611,
      "Ġpilha": 3612,
      "rav": 3613,
      "ranc": 3614,
      "ramos": 3615,
      "rava": 3616,
      "radicion": 3617,
      "rando": 3618,
      "radamente": 3619,
      "rahm": 3620,
      "razeros": 3621,
      "Ġsin": 3622,
      "Ġsint": 3623,
      "Ġsol": 3624,
      "ĠsÃŃn": 3625,
      "Ġsinal": 3626,
      "Ġsorte": 3627,
      "Ġsatis": 3628,
      "Ġsintetiz": 3629,
      "Ġne": 3630,
      "ĠnÃ³s": 3631,
      "Ġneg": 3632,
      "Ġnela": 3633,
      "capÃŃtulo": 3634,
      "calma": 3635,
      "osas": 3636,
      "osos": 3637,
      "ossÃŃvel": 3638,
      "errÃ¢n": 3639,
      "Ġdese": 3640,
      "Ġdedos": 3641,
      "Ġdeparar": 3642,
      "Ġdenso": 3643,
      "Ġdecorar": 3644,
      "Ġtam": 3645,
      "Ġtenor": 3646,
      "Ġtenh": 3647,
      "Ġtende": 3648,
      "ĠtÃŃp": 3649,
      "ores": 3650,
      "oria": 3651,
      "orme": 3652,
      "ormas": 3653,
      "ortÃ¢ncia": 3654,
      "umas": 3655,
      "umam": 3656,
      "quar": 3657,
      "qual": 3658,
      "quenas": 3659,
      "qualidade": 3660,
      "quinto": 3661,
      "Ġcolo": 3662,
      "esco": 3663,
      "essÃ£o": 3664,
      "espe": 3665,
      "estar": 3666,
      "estes": 3667,
      "escobrir": 3668,
      "Ġocid": 3669,
      "Ġopor": 3670,
      "Ġoficial": 3671,
      "ard": 3672,
      "arpa": 3673,
      "armo": 3674,
      "adamente": 3675,
      "icaÃ§Ã£o": 3676,
      "imentos": 3677,
      "imonias": 3678,
      "entas": 3679,
      "entica": 3680,
      "entam": 3681,
      "entalmente": 3682,
      "entais": 3683,
      "tante": 3684,
      "inam": 3685,
      "inado": 3686,
      "inici": 3687,
      "inÃ¡ria": 3688,
      "inutos": 3689,
      "Ġnove": 3690,
      "Ġnono": 3691,
      "Ġnotar": 3692,
      "Ġfu": 3693,
      "Ġfolk": 3694,
      "Ġflex": 3695,
      "ench": 3696,
      "enÃ§as": 3697,
      "enquanto": 3698,
      "encaix": 3699,
      "encontrar": 3700,
      "enefici": 3701,
      "gua": 3702,
      "gunt": 3703,
      "guitarra": 3704,
      "realmente": 3705,
      "repet": 3706,
      "reconhec": 3707,
      "Ã§am": 3708,
      "Ã§ando": 3709,
      "Ġespet": 3710,
      "Ġesfor": 3711,
      "Ã¡tica": 3712,
      "Ã¡ticos": 3713,
      "Ã¡culos": 3714,
      "altura": 3715,
      "algo": 3716,
      "alturas": 3717,
      "alvez": 3718,
      "alguns": 3719,
      "itÃ¡vel": 3720,
      "itiva": 3721,
      "iterrÃ¢n": 3722,
      "Ã³lica": 3723,
      "iamente": 3724,
      "Ġbe": 3725,
      "Ġbr": 3726,
      "Ġbara": 3727,
      "Ġbarra": 3728,
      "Ġbaladas": 3729,
      "ĠbinÃ¡ria": 3730,
      "Ġbenefici": 3731,
      "laby": 3732,
      "ĠpaciÃªncia": 3733,
      "ÃŃda": 3734,
      "ÃŃculas": 3735,
      "ÃŃmp": 3736,
      "Ãºn": 3737,
      "Ãºdo": 3738,
      "Ġsegm": 3739,
      "ĠseleÃ§Ã£o": 3740,
      "veja": 3741,
      "velocidade": 3742,
      "Ġasso": 3743,
      "Ġassegu": 3744,
      "Ġclar": 3745,
      "ĠciÃªncia": 3746,
      "Ġcena": 3747,
      "Ġcrescendo": 3748,
      "Ġcient": 3749,
      "Ġcrom": 3750,
      "ĠcÃ©rebro": 3751,
      "roco": 3752,
      "ropriado": 3753,
      "Ġdamos": 3754,
      "Ġdaqui": 3755,
      "igual": 3756,
      "Ġdoze": 3757,
      "Ġ19": 3758,
      "Ãºstica": 3759,
      "Ãºscu": 3760,
      "determin": 3761,
      "depois": 3762,
      "igurar": 3763,
      "Ġparagens": 3764,
      "lobal": 3765,
      "lonce": 3766,
      "amo": 3767,
      "onde": 3768,
      "ativ": 3769,
      "ativo": 3770,
      "dando": 3771,
      "Ãªnt": 3772,
      "ectrÃ³n": 3773,
      "Ġlar": 3774,
      "Ġlento": 3775,
      "Ġlembre": 3776,
      "Ġlira": 3777,
      "Ġlinguagem": 3778,
      "ĠAtaque": 3779,
      "ĠAnalis": 3780,
      "ĠAtÃ©": 3781,
      "ĠAnim": 3782,
      "ĠAFINA": 3783,
      "mant": 3784,
      "ĠvÃ£o": 3785,
      "Ġvis": 3786,
      "ĠvÃ¡": 3787,
      "ĠvÃª": 3788,
      "Ġvisto": 3789,
      "Ġvimos": 3790,
      "Ġtoma": 3791,
      "irÃ¡": 3792,
      "iremos": 3793,
      "irpin": 3794,
      "olos": 3795,
      "cordas": 3796,
      "teoria": 3797,
      "ĠDol": 3798,
      "ĠDiv": 3799,
      "ĠDinÃ¢mica": 3800,
      "ĠDescobrir": 3801,
      "ĠDinam": 3802,
      "ĠSusten": 3803,
      "ĠSUS": 3804,
      "ĠSEM": 3805,
      "ĠSaber": 3806,
      "tring": 3807,
      "ĠIntro": 3808,
      "ĠItal": 3809,
      "cipa": 3810,
      "cional": 3811,
      "todas": 3812,
      "tocada": 3813,
      "totaliz": 3814,
      "ĠnotaÃ§Ãµes": 3815,
      "Ġcompre": 3816,
      "Ġtrist": 3817,
      "Ġtrilo": 3818,
      "ĠtriÃ¢n": 3819,
      "Ġosso": 3820,
      "Ġcair": 3821,
      "Ġcapa": 3822,
      "Ġcantar": 3823,
      "ĠcapÃŃt": 3824,
      "Ġcance": 3825,
      "Ġinforma": 3826,
      "Ġinferior": 3827,
      "Ġinflu": 3828,
      "Ġpormenor": 3829,
      "izado": 3830,
      "izinh": 3831,
      "trans": 3832,
      "ific": 3833,
      "ĠMu": 3834,
      "ĠMenor": 3835,
      "ĠMostra": 3836,
      "ĠMed": 3837,
      "ĠMÃ©todo": 3838,
      "ĠTambÃ©m": 3839,
      "ĠTudo": 3840,
      "ĠTub": 3841,
      "ĠTonal": 3842,
      "ĠTabe": 3843,
      "ĠTimbre": 3844,
      "ĠTONS": 3845,
      "ĠTeclado": 3846,
      "ĠTEOR": 3847,
      "Ġreal": 3848,
      "Ġrever": 3849,
      "Ġrepare": 3850,
      "Ġrefr": 3851,
      "Ġreparar": 3852,
      "Ġrelig": 3853,
      "Ġreproduzir": 3854,
      "poder": 3855,
      "pontar": 3856,
      "podemos": 3857,
      "Ġentra": 3858,
      "ĠcontÃ¡": 3859,
      "Ġcontro": 3860,
      "Ġcontadas": 3861,
      "Ġcontados": 3862,
      "Ġcontidos": 3863,
      "ĠcontÃªm": 3864,
      "Ġexiste": 3865,
      "Ġexato": 3866,
      "ĠexceÃ§Ã£o": 3867,
      "seca": 3868,
      "sequ": 3869,
      "seta": 3870,
      "sequen": 3871,
      "Ġtermo": 3872,
      "Ġtermin": 3873,
      "Ġseguindo": 3874,
      "Ġconc": 3875,
      "Ġconex": 3876,
      "Ġconversa": 3877,
      "Ġintro": 3878,
      "Ġintel": 3879,
      "valor": 3880,
      "ĠCa": 3881,
      "ĠCom": 3882,
      "ĠCOMP": 3883,
      "ĠColoca": 3884,
      "ĠEn": 3885,
      "ĠEles": 3886,
      "ĠEle": 3887,
      "ĠEventualmente": 3888,
      "Ġparecem": 3889,
      "resultado": 3890,
      "verÃ¡": 3891,
      "ĠOitavas": 3892,
      "ĠOrquestra": 3893,
      "utor": 3894,
      "utar": 3895,
      "utro": 3896,
      "ige": 3897,
      "Ġestend": 3898,
      "pausa": 3899,
      "pausas": 3900,
      "Ġhom": 3901,
      "Ġhoriz": 3902,
      "Ġharpa": 3903,
      "ĠalÃ©m": 3904,
      "Ġalter": 3905,
      "Ġaleg": 3906,
      "montar": 3907,
      "rivelmente": 3908,
      "riosos": 3909,
      "tence": 3910,
      "tencia": 3911,
      "ĠForma": 3912,
      "ĠForte": 3913,
      "Ġmetal": 3914,
      "rmos": 3915,
      "desenh": 3916,
      "desenvol": 3917,
      "Ġgeral": 3918,
      "Ġgosto": 3919,
      "Ġgeralmente": 3920,
      "Ġglobal": 3921,
      "Ġdesv": 3922,
      "Ġdescobrir": 3923,
      "ĠPro": 3924,
      "ĠPOP": 3925,
      "ĠRenas": 3926,
      "ĠRara": 3927,
      "ĠRoma": 3928,
      "Ġmova": 3929,
      "unicar": 3930,
      "Ġaplic": 3931,
      "Ġapropriado": 3932,
      "Ġperder": 3933,
      "Ġperspe": 3934,
      "Ġpertence": 3935,
      "ĠLembre": 3936,
      "ĠLeg": 3937,
      "ĠLoul": 3938,
      "ulh": 3939,
      "ulÃ¡rio": 3940,
      "Ġtocaremos": 3941,
      "derÃ¡": 3942,
      "CAI": 3943,
      "Ġsoci": 3944,
      "Ġsopro": 3945,
      "Ġsouber": 3946,
      "Ġsegundos": 3947,
      "utilizado": 3948,
      "utilizada": 3949,
      "Ġenvol": 3950,
      "Ġenfr": 3951,
      "Ġengenh": 3952,
      "Ġenorme": 3953,
      "ITONS": 3954,
      "Qualidade": 3955,
      "Quartas": 3956,
      "ĠdiferenÃ§as": 3957,
      "Ġaumento": 3958,
      "Ġaumentamos": 3959,
      "Ġaumentou": 3960,
      "strumentos": 3961,
      "TENID": 3962,
      "Ġacresc": 3963,
      "ĠversÃµes": 3964,
      "Ġgrandes": 3965,
      "Ġprof": 3966,
      "Ġpropos": 3967,
      "ĠpropÃ³s": 3968,
      "cedido": 3969,
      "ĠNe": 3970,
      "ĠNeste": 3971,
      "ĠNAT": 3972,
      "ĠNestes": 3973,
      "istir": 3974,
      "istur": 3975,
      "Ġremo": 3976,
      "Ġdiminuendo": 3977,
      "contudo": 3978,
      "contorno": 3979,
      "Ġexemplificar": 3980,
      "Ġpartilh": 3981,
      "ĠpartÃŃculas": 3982,
      "ĠVi": 3983,
      "ĠVeja": 3984,
      "pela": 3985,
      "utamente": 3986,
      "Ġinstrumental": 3987,
      "Ġchave": 3988,
      "vaÃ§Ãµes": 3989,
      "parte": 3990,
      "parecer": 3991,
      "jacente": 3992,
      "melÃ³": 3993,
      "ĠestÃ¡vel": 3994,
      "Ġ45": 3995,
      "Ġprepara": 3996,
      "legro": 3997,
      "Ġimperfeita": 3998,
      "Ġimpulsivo": 3999,
      "Ġimplement": 4000,
      "ĠimpossÃŃvel": 4001,
      "ĠimportÃ¢ncia": 4002,
      "Ġleg": 4003,
      "Ġlev": 4004,
      "Ġlevam": 4005,
      "Ġatuar": 4006,
      "Ġperforma": 4007,
      "Ġ24": 4008,
      "Ġ27": 4009,
      "Ġsignificar": 4010,
      "comunicar": 4011,
      "Ġtiveram": 4012,
      "Ġharmonias": 4013,
      "ĠHarm": 4014,
      "ĠHarmonia": 4015,
      "Ġconsist": 4016,
      "Ġconstante": 4017,
      "Ġsair": 4018,
      "Ġescrevem": 4019,
      "Ġescrevemos": 4020,
      "Ġchamamos": 4021,
      "Ãºmero": 4022,
      "Ġouvida": 4023,
      "Ġouvidos": 4024,
      "Ġouviu": 4025,
      "Ġfora": 4026,
      "Ġfonte": 4027,
      "presa": 4028,
      "Ġuns": 4029,
      "Ġtornada": 4030,
      "ĠEscalas": 4031,
      "ĠEscala": 4032,
      "gote": 4033,
      "lha": 4034,
      "Ġ7000": 4035,
      "Ġdivert": 4036,
      "Ġposicion": 4037,
      "paragem": 4038,
      "Ġsombri": 4039,
      "Ġteoricamente": 4040,
      "ĠcomeÃ§am": 4041,
      "tivas": 4042,
      "Ġrespons": 4043,
      "conec": 4044,
      "conversa": 4045,
      "consegue": 4046,
      "cabulÃ¡rio": 4047,
      "Ġestava": 4048,
      "Ġestavam": 4049,
      "ĠQUE": 4050,
      "Ġdisso": 4051,
      "Ġdisseca": 4052,
      "Ġbaixado": 4053,
      "Ġbaixistas": 4054,
      "Ġcriado": 4055,
      "Ġcriados": 4056,
      "Ġcriador": 4057,
      "comple": 4058,
      "complex": 4059,
      "Ġquantidades": 4060,
      "Ġcasual": 4061,
      "segundo": 4062,
      "segunda": 4063,
      "segundos": 4064,
      "Ġusada": 4065,
      "Ġtraz": 4066,
      "ĠBem": 4067,
      "ĠBEM": 4068,
      "ĠBook": 4069,
      "ĠBrahm": 4070,
      "Ġperfeitamente": 4071,
      "Ġ96": 4072,
      "Ġ99": 4073,
      "Ġpalma": 4074,
      "Ġdividindo": 4075,
      "ASSO": 4076,
      "Ã¡rias": 4077,
      "Ġinicial": 4078,
      "prend": 4079,
      "sonoras": 4080,
      "Ġsentidos": 4081,
      "Ġcolocado": 4082,
      "ĠcolocaÃ§Ã£o": 4083,
      "Ġcolocadas": 4084,
      "Ġligeira": 4085,
      "Ġligeiramente": 4086,
      "Ġinverso": 4087,
      "ĠPorque": 4088,
      "Ġpreciso": 4089,
      "Ġprecisavam": 4090,
      "ĠGreg": 4091,
      "Ġvibr": 4092,
      "Ġ1500": 4093,
      "terminar": 4094,
      "Estas": 4095,
      "balo": 4096,
      "essencialmente": 4097,
      "ĠfalÃ¡mos": 4098,
      "Ġraro": 4099,
      "Ġrall": 4100,
      "Ġpulsos": 4101,
      "percep": 4102,
      "perfeito": 4103,
      "ĠidÃªnt": 4104,
      "Ġrondo": 4105,
      "ormal": 4106,
      "Ġpossuem": 4107,
      "udam": 4108,
      "Ġdeterminada": 4109,
      "Ġquerem": 4110,
      "Ġbanda": 4111,
      "Ġbandas": 4112,
      "ĠestarÃ¡": 4113,
      "Ġmontadas": 4114,
      "formas": 4115,
      "Ġtonalidades": 4116,
      "Ġficam": 4117,
      "exemp": 4118,
      "exceÃ§Ã£o": 4119,
      "ĠQualquer": 4120,
      "Ġpensamento": 4121,
      "Determinar": 4122,
      "Note": 4123,
      "Ġquisesse": 4124,
      "Ġincrivelmente": 4125,
      "ĠcomunicaÃ§Ã£o": 4126,
      "Ġfundamental": 4127,
      "Ġseparada": 4128,
      "Ġcertos": 4129,
      "Ġcerimonias": 4130,
      "Ġrepetem": 4131,
      "Ġrepetir": 4132,
      "Ġrepetindo": 4133,
      "Ġrepetidamente": 4134,
      "ultÃ¢ne": 4135,
      "ioso": 4136,
      "ĠclÃ¡ssico": 4137,
      "Ġcompleto": 4138,
      "Ġdesenhado": 4139,
      "Ġespecial": 4140,
      "Ġtrabalhos": 4141,
      "mesmo": 4142,
      "volta": 4143,
      "volume": 4144,
      "Ġajudam": 4145,
      "Ġesses": 4146,
      "Ġessencial": 4147,
      "ĠMael": 4148,
      "ĠconhecÃª": 4149,
      "Ġdescem": 4150,
      "Ġimproviso": 4151,
      "Ġconsideradas": 4152,
      "ficiente": 4153,
      "ficientemente": 4154,
      "ionalmente": 4155,
      "sustenidos": 4156,
      "Ġacontecer": 4157,
      "Ġsubjacente": 4158,
      "ĠfrequÃªncias": 4159,
      "correm": 4160,
      "Ġreferir": 4161,
      "Ġseriam": 4162,
      "ĠprincÃŃp": 4163,
      "Ġprincipa": 4164,
      "Ġproduzem": 4165,
      "Ġproduzida": 4166,
      "Ġaquelas": 4167,
      "Ġaquele": 4168,
      "Ġformulas": 4169,
      "ĠdiminuÃŃdo": 4170,
      "ĠdiminuÃŃmos": 4171,
      "Ġbaseados": 4172,
      "Ġtabelas": 4173,
      "neamente": 4174,
      "neiras": 4175,
      "ponÃŃveis": 4176,
      "Ġequivale": 4177,
      "Ġequivalentes": 4178,
      "ĠnecessÃ¡rio": 4179,
      "Ġcarro": 4180,
      "ĠOutra": 4181,
      "Ġpermitidas": 4182,
      "Tocar": 4183,
      "apto": 4184,
      "ndioso": 4185,
      "Ġultima": 4186,
      "Ġencher": 4187,
      "Ġdecrescendo": 4188,
      "Ġdefinir": 4189,
      "ĠdefiniÃ§Ã£o": 4190,
      "estÃ¡": 4191,
      "estudante": 4192,
      "Ġobter": 4193,
      "Ġobje": 4194,
      "enciam": 4195,
      "ĠcriaÃ§Ã£o": 4196,
      "Ġcriando": 4197,
      "ĠvariaÃ§Ãµes": 4198,
      "Ġindicam": 4199,
      "Ġconfuso": 4200,
      "Ġconfigurar": 4201,
      "rescente": 4202,
      "Ġalterar": 4203,
      "Ġalterada": 4204,
      "ĠPop": 4205,
      "Ġmovimento": 4206,
      "Ġdiscute": 4207,
      "ĠmelÃ³dicos": 4208,
      "Ġestrutural": 4209,
      "Ġamp": 4210,
      "Ġamerica": 4211,
      "ĠsimultÃ¢ne": 4212,
      "regulares": 4213,
      "ÃŃmbolos": 4214,
      "vezes": 4215,
      "ĠCADE": 4216,
      "ĠPerfeito": 4217,
      "ĠPerfeitos": 4218,
      "ultaneamente": 4219,
      "Ġorganizar": 4220,
      "Ġorganizado": 4221,
      "Ġorganizadas": 4222,
      "Ġorganizados": 4223,
      "Ġleitores": 4224,
      "ĠÃºltimas": 4225,
      "Ġverdadeiro": 4226,
      "Ġprincipio": 4227,
      "Ġfechado": 4228,
      "TTSTT": 4229,
      "ibu": 4230,
      "Ġaquilo": 4231,
      "Ġsalta": 4232,
      "Ġocorrer": 4233,
      "Ġfez": 4234,
      "Ġfeitos": 4235,
      "Ġcurto": 4236,
      "Ġprimeiras": 4237,
      "Ġconceito": 4238,
      "Ġdesacelerar": 4239,
      "Ġmodulada": 4240,
      "Ġmoderno": 4241,
      "armÃ³nico": 4242,
      "armÃ³nicos": 4243,
      "Ġanteriores": 4244,
      "Ġanteriormente": 4245,
      "Ġaparecerem": 4246,
      "Ġdiscutir": 4247,
      "Ġdiscutidas": 4248,
      "ĠtÃ©cnico": 4249,
      "Compassos": 4250,
      "URAL": 4251,
      "acima": 4252,
      "disson": 4253,
      "escr": 4254,
      "escrever": 4255,
      "inguÃŃvel": 4256,
      "Ġescola": 4257,
      "ĠvocabulÃ¡rio": 4258,
      "ĠDois": 4259,
      "ĠSemitons": 4260,
      "Ġiniciante": 4261,
      "ĠpedaÃ§o": 4262,
      "ĠMezzo": 4263,
      "ĠMover": 4264,
      "ĠMovendo": 4265,
      "Ġexperimentar": 4266,
      "ĠPapa": 4267,
      "ExpressÃ£o": 4268,
      "Pausa": 4269,
      "TrÃŃade": 4270,
      "aumentado": 4271,
      "aumentada": 4272,
      "didatas": 4273,
      "ĠdistÃ¢ncia": 4274,
      "ĠdistinguÃŃvel": 4275,
      "Ġafir": 4276,
      "ĠminÃºsculas": 4277,
      "Ġminutos": 4278,
      "adicionamos": 4279,
      "Ã©trica": 4280,
      "ĠcombinaÃ§Ãµes": 4281,
      "Ġcultura": 4282,
      "ĠAllegro": 4283,
      "Ġcomplicadas": 4284,
      "Ġcomplicados": 4285,
      "ĠconteÃºdo": 4286,
      "ĠEuropa": 4287,
      "ĠdivisÃŃvel": 4288,
      "Seguindo": 4289,
      "Ġresultando": 4290,
      "Ġtransmit": 4291,
      "Ġtranscrever": 4292,
      "Ġidentidade": 4293,
      "Ġfacilidade": 4294,
      "Ġimaginar": 4295,
      "Ġalteramos": 4296,
      "ĠÃ³rgÃ£os": 4297,
      "Ġmemorizadas": 4298,
      "Ġinterpretar": 4299,
      "Provavelmente": 4300,
      "diminuta": 4301,
      "diminuto": 4302,
      "sionante": 4303,
      "tornando": 4304,
      "Ġatribu": 4305,
      "Ġsitio": 4306,
      "Ġsonora": 4307,
      "cadÃªncia": 4308,
      "ÃŃrculo": 4309,
      "tocamos": 4310,
      "Ġtruques": 4311,
      "Ġinspira": 4312,
      "Ġpresente": 4313,
      "Ġdesenvolvida": 4314,
      "Ġaplicado": 4315,
      "Ġparticularmente": 4316,
      "ouvir": 4317,
      "ĠSegunda": 4318,
      "ĠSegundas": 4319,
      "Ġtradicionais": 4320,
      "Ġcorresponder": 4321,
      "Ġcorrespondentes": 4322,
      "Ġartista": 4323,
      "ĠincluÃŃdos": 4324,
      "Ġlocalizado": 4325,
      "Ġlongas": 4326,
      "Ġencurta": 4327,
      "Ġexperiencia": 4328,
      "gramas": 4329,
      "nÃºmero": 4330,
      "nÃºmeros": 4331,
      "tipo": 4332,
      "Ġafinadas": 4333,
      "ĠafinaÃ§Ã£o": 4334,
      "Ġerrada": 4335,
      "Ġmicro": 4336,
      "Ġmicros": 4337,
      "idez": 4338,
      "Ġciclo": 4339,
      "Ġciclos": 4340,
      "ĠdanÃ§ar": 4341,
      "ĠinarmÃ³nico": 4342,
      "trabalhar": 4343,
      "Ġconectadas": 4344,
      "Ġparede": 4345,
      "ĠpareÃ§a": 4346,
      "Ġparecidas": 4347,
      "ĠnumeraÃ§Ã£o": 4348,
      "ĠgiratÃ³rio": 4349,
      "ĠPrimeira": 4350,
      "ĠPrimeiro": 4351,
      "Ġencaixam": 4352,
      "Ġprocura": 4353,
      "Ġprocesso": 4354,
      "Ġproblema": 4355,
      "Ġproblemas": 4356,
      "Ġfocados": 4357,
      "Ã¢nea": 4358,
      "Ġespecifico": 4359,
      "Ġespecificas": 4360,
      "Ġmartelo": 4361,
      "Ġmartelos": 4362,
      "ĠGrandioso": 4363,
      "Ġaborre": 4364,
      "ĠFORMAS": 4365,
      "ĠFORMULAS": 4366,
      "ĠJoy": 4367,
      "ĠJohan": 4368,
      "ĠdiatÃ³nicas": 4369,
      "ĠdiatÃ³nicos": 4370,
      "Ġassustar": 4371,
      "Ġpianista": 4372,
      "Ġabsoluto": 4373,
      "Ġabsolutamente": 4374,
      "Melodia": 4375,
      "PadrÃµes": 4376,
      "Semitons": 4377,
      "autentica": 4378,
      "acidentes": 4379,
      "fatias": 4380,
      "frase": 4381,
      "Ġimenso": 4382,
      "ĠdÃ©cimo": 4383,
      "Ġadivinh": 4384,
      "ĠelÃ©trica": 4385,
      "Ġsimplista": 4386,
      "Ġsurpresa": 4387,
      "Ġferramentas": 4388,
      "Ġesquecer": 4389,
      "Ġespetacular": 4390,
      "Ġbarulh": 4391,
      "Ġblocos": 4392,
      "Ġsequencialmente": 4393,
      "Ġaspecto": 4394,
      "Ġcembalo": 4395,
      "Ġclassifica": 4396,
      "Ġnaquela": 4397,
      "ĠlÃ³gica": 4398,
      "ĠArco": 4399,
      "ĠAumentado": 4400,
      "Ġviolonce": 4401,
      "ĠtocÃ¡": 4402,
      "ĠDeclÃŃnio": 4403,
      "ĠInver": 4404,
      "Ġcaminho": 4405,
      "Ġcaracter": 4406,
      "ĠcandÃªncias": 4407,
      "Ġindepend": 4408,
      "ĠindisponÃŃvel": 4409,
      "Ġindividuais": 4410,
      "ĠTercinas": 4411,
      "Ġrequerem": 4412,
      "Ġregulares": 4413,
      "Ġcontraste": 4414,
      "Ġinteriorizar": 4415,
      "ĠComeÃ§ando": 4416,
      "Ġestivessem": 4417,
      "Ġgostam": 4418,
      "Ġmoderadamente": 4419,
      "ĠpercussÃ£o": 4420,
      "Ġsozinha": 4421,
      "ĠaceitÃ¡vel": 4422,
      "Ġverticais": 4423,
      "Ġprogredir": 4424,
      "partida": 4425,
      "metrÃ³nomo": 4426,
      "Ġpreocupe": 4427,
      "Ġimprim": 4428,
      "terceira": 4429,
      "composiÃ§Ã£o": 4430,
      "ĠpadronizaÃ§Ã£o": 4431,
      "Ġconsonantes": 4432,
      "Ġconstituem": 4433,
      "Ġconsecutivas": 4434,
      "Ġuniversal": 4435,
      "Ġresumo": 4436,
      "prÃ³ximo": 4437,
      "ĠGrega": 4438,
      "Ġrapidamente": 4439,
      "Ġinventaram": 4440,
      "ĠmudanÃ§as": 4441,
      "Ġconfunda": 4442,
      "Ġamigos": 4443,
      "ĠXVII": 4444,
      "Ġagrupadas": 4445,
      "Ġsucess": 4446,
      "atisfaÃ§Ã£o": 4447,
      "ĠavanÃ§ados": 4448,
      "Ġfilosofia": 4449,
      "Ġpressionados": 4450,
      "CandÃªncia": 4451,
      "DinÃ¢micas": 4452,
      "IZAR": 4453,
      "Lullaby": 4454,
      "Marcas": 4455,
      "MÃºsicas": 4456,
      "Ocasionalmente": 4457,
      "Primeiro": 4458,
      "Quantidade": 4459,
      "ULARES": 4460,
      "Veremos": 4461,
      "duraÃ§Ã£o": 4462,
      "distancia": 4463,
      "gÃŃpcios": 4464,
      "necessÃ¡ria": 4465,
      "palav": 4466,
      "pÃŃrito": 4467,
      "sÃ©timo": 4468,
      "sempre": 4469,
      "tunidade": 4470,
      "tempos": 4471,
      "ÃĵIS": 4472,
      "ĠÃŃmpar": 4473,
      "ĠurgÃªncia": 4474,
      "Ġderiv": 4475,
      "Ġdiminutos": 4476,
      "Ġautodidatas": 4477,
      "coisas": 4478,
      "comeÃ§a": 4479,
      "ĠmÃŃnimo": 4480,
      "ĠpÃ¡ssaros": 4481,
      "radicionalmente": 4482,
      "razerosos": 4483,
      "ĠsÃŃncope": 4484,
      "Ġtenha": 4485,
      "Ġcoloque": 4486,
      "Ġoportunidade": 4487,
      "encaixam": 4488,
      "ĠespetÃ¡culos": 4489,
      "Ġbeneficio": 4490,
      "ÃŃmpan": 4491,
      "Ġsegmento": 4492,
      "Ġassoci": 4493,
      "Ġclarine": 4494,
      "ĠcromÃ¡ticos": 4495,
      "Ãºscula": 4496,
      "ectrÃ³nicos": 4497,
      "ĠAnalisar": 4498,
      "ĠAFINAL": 4499,
      "ĠDinamar": 4500,
      "ĠSUSTENID": 4501,
      "ĠSEMITONS": 4502,
      "totalizando": 4503,
      "Ġtristes": 4504,
      "ĠtriÃ¢ngu": 4505,
      "ĠcapÃŃtulos": 4506,
      "izinhos": 4507,
      "ĠMediterrÃ¢n": 4508,
      "ĠTuba": 4509,
      "ĠTEORIA": 4510,
      "Ġreverte": 4511,
      "ĠrefrÃ£o": 4512,
      "Ġterminar": 4513,
      "ĠconexÃ£o": 4514,
      "Ġintelig": 4515,
      "ĠCOMPASSO": 4516,
      "Ġhorizont": 4517,
      "tenciais": 4518,
      "desenho": 4519,
      "ĠPOPULARES": 4520,
      "ĠRaramente": 4521,
      "Ġperspetiva": 4522,
      "ĠLegato": 4523,
      "ĠLouliÃ©": 4524,
      "ĠpropÃ³sito": 4525,
      "ĠNATURAL": 4526,
      "Ġpartilham": 4527,
      "melÃ³dica": 4528,
      "Ġsombrio": 4529,
      "ĠresponsÃ¡vel": 4530,
      "ĠBEMÃĵIS": 4531,
      "Ġvibrem": 4532,
      "ĠMaelzel": 4533,
      "ĠprincÃŃpios": 4534,
      "Ġprincipais": 4535,
      "Ġobjetivo": 4536,
      "ĠsimultÃ¢neo": 4537,
      "ĠCADENCIA": 4538,
      "TTSTTTS": 4539,
      "Ġinspirador": 4540,
      "ĠJohann": 4541,
      "Ġvioloncelo": 4542,
      "ĠSUSTENIDOS": 4543,
      "ĠNATURALIZAR": 4544
    },
    "merges": [
      [
        "č",
        "Ċ"
      ],
      [
        "Ġ",
        "d"
      ],
      [
        "a",
        "s"
      ],
      [
        "Ġ",
        "a"
      ],
      [
        "n",
        "t"
      ],
      [
        "Ġ",
        "e"
      ],
      [
        "c",
        "o"
      ],
      [
        "Ġ",
        "m"
      ],
      [
        "Ġ",
        "p"
      ],
      [
        "r",
        "a"
      ],
      [
        "Ġ",
        "s"
      ],
      [
        "Ġ",
        "n"
      ],
      [
        "c",
        "a"
      ],
      [
        "o",
        "s"
      ],
      [
        "e",
        "r"
      ],
      [
        "Ġd",
        "e"
      ],
      [
        "Ġ",
        "t"
      ],
      [
        "o",
        "r"
      ],
      [
        "u",
        "m"
      ],
      [
        "q",
        "u"
      ],
      [
        "e",
        "m"
      ],
      [
        "Ġ",
        "co"
      ],
      [
        "e",
        "s"
      ],
      [
        "Ġ",
        "o"
      ],
      [
        "a",
        "r"
      ],
      [
        "Ġ",
        "qu"
      ],
      [
        "Ġ",
        "um"
      ],
      [
        "a",
        "d"
      ],
      [
        "Ã",
        "£"
      ],
      [
        "Ã£",
        "o"
      ],
      [
        "i",
        "ca"
      ],
      [
        "Ã",
        "©"
      ],
      [
        "i",
        "m"
      ],
      [
        "e",
        "nt"
      ],
      [
        "Ġco",
        "m"
      ],
      [
        "i",
        "s"
      ],
      [
        "t",
        "a"
      ],
      [
        "i",
        "n"
      ],
      [
        "Ġn",
        "o"
      ],
      [
        "Ġ",
        "f"
      ],
      [
        "e",
        "n"
      ],
      [
        "i",
        "d"
      ],
      [
        "g",
        "u"
      ],
      [
        "r",
        "e"
      ],
      [
        "Ã",
        "§"
      ],
      [
        "Ġe",
        "s"
      ],
      [
        "Ã",
        "¡"
      ],
      [
        "a",
        "l"
      ],
      [
        "i",
        "t"
      ],
      [
        "Ġqu",
        "e"
      ],
      [
        "Ã",
        "³"
      ],
      [
        "i",
        "a"
      ],
      [
        "Ġ",
        "b"
      ],
      [
        "Ġum",
        "a"
      ],
      [
        "l",
        "a"
      ],
      [
        "u",
        "s"
      ],
      [
        "Ġm",
        "a"
      ],
      [
        "d",
        "o"
      ],
      [
        "Ġp",
        "a"
      ],
      [
        "Ã",
        "Ń"
      ],
      [
        "Ġ",
        "Ã©"
      ],
      [
        "Ã",
        "º"
      ],
      [
        "Ġs",
        "e"
      ],
      [
        "v",
        "e"
      ],
      [
        "Ġ",
        "as"
      ],
      [
        "Ġ",
        "c"
      ],
      [
        "r",
        "o"
      ],
      [
        "t",
        "as"
      ],
      [
        "Ġd",
        "a"
      ],
      [
        "Ġn",
        "a"
      ],
      [
        "â",
        "Ģ"
      ],
      [
        "ent",
        "e"
      ],
      [
        "i",
        "gu"
      ],
      [
        "Ġd",
        "o"
      ],
      [
        "Ġ",
        "1"
      ],
      [
        "Ãº",
        "s"
      ],
      [
        "d",
        "e"
      ],
      [
        "igu",
        "ra"
      ],
      [
        "Ġpa",
        "ra"
      ],
      [
        "l",
        "o"
      ],
      [
        "a",
        "m"
      ],
      [
        "Ġo",
        "u"
      ],
      [
        "Ġm",
        "Ãºs"
      ],
      [
        "i",
        "nt"
      ],
      [
        "o",
        "n"
      ],
      [
        "a",
        "t"
      ],
      [
        "d",
        "a"
      ],
      [
        "Ã",
        "ª"
      ],
      [
        "e",
        "c"
      ],
      [
        "Ġ",
        "l"
      ],
      [
        "Ġ",
        "A"
      ],
      [
        "i",
        "or"
      ],
      [
        "m",
        "a"
      ],
      [
        "Ġ",
        "v"
      ],
      [
        "Ġt",
        "o"
      ],
      [
        "ĠmÃºs",
        "ica"
      ],
      [
        "Ġs",
        "em"
      ],
      [
        "i",
        "r"
      ],
      [
        "o",
        "l"
      ],
      [
        "co",
        "r"
      ],
      [
        "a",
        "n"
      ],
      [
        "t",
        "e"
      ],
      [
        "u",
        "ra"
      ],
      [
        "Ġ",
        "âĢ"
      ],
      [
        "Ġno",
        "tas"
      ],
      [
        "Ã§",
        "Ã£o"
      ],
      [
        "Ġ",
        "D"
      ],
      [
        "Ġcom",
        "o"
      ],
      [
        "im",
        "a"
      ],
      [
        "e",
        "i"
      ],
      [
        "Ġma",
        "ior"
      ],
      [
        "Ġ",
        "S"
      ],
      [
        "F",
        "igura"
      ],
      [
        "ad",
        "e"
      ],
      [
        "en",
        "or"
      ],
      [
        "o",
        "m"
      ],
      [
        "t",
        "r"
      ],
      [
        "Ġ",
        "I"
      ],
      [
        "c",
        "i"
      ],
      [
        "s",
        "o"
      ],
      [
        "Ġa",
        "cor"
      ],
      [
        "t",
        "o"
      ],
      [
        "m",
        "ente"
      ],
      [
        "Ġno",
        "ta"
      ],
      [
        "Ġe",
        "m"
      ],
      [
        "Ġcom",
        "p"
      ],
      [
        "Ġp",
        "o"
      ],
      [
        "Ġm",
        "enor"
      ],
      [
        "Ġt",
        "r"
      ],
      [
        "Ġ",
        "os"
      ],
      [
        "Ġ",
        "ca"
      ],
      [
        "Ġ",
        "in"
      ],
      [
        "Ġma",
        "is"
      ],
      [
        "Ã§",
        "a"
      ],
      [
        "Ġt",
        "em"
      ],
      [
        "an",
        "do"
      ],
      [
        "Ġes",
        "ca"
      ],
      [
        "ĠâĢ",
        "ĵ"
      ],
      [
        "Ġp",
        "or"
      ],
      [
        "i",
        "z"
      ],
      [
        "Ġp",
        "e"
      ],
      [
        "t",
        "ra"
      ],
      [
        "i",
        "f"
      ],
      [
        "Ġ",
        "M"
      ],
      [
        "i",
        "v"
      ],
      [
        "Ġs",
        "Ã£o"
      ],
      [
        "r",
        "as"
      ],
      [
        "us",
        "ica"
      ],
      [
        "Ġf",
        "or"
      ],
      [
        "Ġ",
        "T"
      ],
      [
        "Ġ",
        "re"
      ],
      [
        "p",
        "o"
      ],
      [
        "Ġe",
        "nt"
      ],
      [
        "Ġto",
        "ca"
      ],
      [
        "um",
        "ent"
      ],
      [
        "at",
        "id"
      ],
      [
        "l",
        "as"
      ],
      [
        "Ġs",
        "er"
      ],
      [
        "Ġco",
        "nt"
      ],
      [
        "ad",
        "o"
      ],
      [
        "Ġe",
        "x"
      ],
      [
        "Ġp",
        "r"
      ],
      [
        "ĠD",
        "Ã³"
      ],
      [
        "s",
        "e"
      ],
      [
        "ad",
        "a"
      ],
      [
        "Ġt",
        "er"
      ],
      [
        "Ġse",
        "gu"
      ],
      [
        "b",
        "re"
      ],
      [
        "id",
        "o"
      ],
      [
        "Ġb",
        "atid"
      ],
      [
        "Ġm",
        "usica"
      ],
      [
        "Ġco",
        "n"
      ],
      [
        "Ġesca",
        "la"
      ],
      [
        "i",
        "l"
      ],
      [
        "Ġ",
        "int"
      ],
      [
        "v",
        "al"
      ],
      [
        "Ġ",
        "C"
      ],
      [
        "Ġ",
        "E"
      ],
      [
        "Ġp",
        "ar"
      ],
      [
        "er",
        "val"
      ],
      [
        "r",
        "es"
      ],
      [
        "v",
        "er"
      ],
      [
        "Ġ",
        "O"
      ],
      [
        "Ġb",
        "em"
      ],
      [
        "u",
        "t"
      ],
      [
        "Ġn",
        "um"
      ],
      [
        "Ġacor",
        "de"
      ],
      [
        "i",
        "co"
      ],
      [
        "i",
        "g"
      ],
      [
        "n",
        "o"
      ],
      [
        "as",
        "so"
      ],
      [
        "Ã©",
        "t"
      ],
      [
        "Ã³",
        "n"
      ],
      [
        "Ġes",
        "t"
      ],
      [
        "p",
        "a"
      ],
      [
        "u",
        "a"
      ],
      [
        "Ġn",
        "Ã£o"
      ],
      [
        "it",
        "o"
      ],
      [
        "Ġ",
        "("
      ],
      [
        "Ġ",
        "h"
      ],
      [
        "Ġa",
        "l"
      ],
      [
        "d",
        "as"
      ],
      [
        "qu",
        "e"
      ],
      [
        "m",
        "o"
      ],
      [
        "n",
        "c"
      ],
      [
        "r",
        "i"
      ],
      [
        "Ġsem",
        "it"
      ],
      [
        "Ġ",
        "Ã"
      ],
      [
        "t",
        "en"
      ],
      [
        "Ġ",
        "F"
      ],
      [
        "Ġm",
        "u"
      ],
      [
        "im",
        "p"
      ],
      [
        "Ġm",
        "e"
      ],
      [
        "em",
        "os"
      ],
      [
        "r",
        "m"
      ],
      [
        "Ãª",
        "s"
      ],
      [
        "u",
        "as"
      ],
      [
        "la",
        "ve"
      ],
      [
        "Ġmusica",
        "l"
      ],
      [
        "a",
        "nt"
      ],
      [
        "d",
        "es"
      ],
      [
        "Ġint",
        "erval"
      ],
      [
        "os",
        "tra"
      ],
      [
        "Ġ",
        "U"
      ],
      [
        "Ġbem",
        "ol"
      ],
      [
        "in",
        "h"
      ],
      [
        "A",
        "R"
      ],
      [
        "Ġ",
        "g"
      ],
      [
        "Ġcomp",
        "asso"
      ],
      [
        "Ġde",
        "s"
      ],
      [
        "us",
        "ten"
      ],
      [
        "in",
        "u"
      ],
      [
        "id",
        "ade"
      ],
      [
        "Ġ",
        "P"
      ],
      [
        "Ġtr",
        "Ãªs"
      ],
      [
        "Ġm",
        "ostra"
      ],
      [
        "Ġdo",
        "is"
      ],
      [
        "Ġ",
        "R"
      ],
      [
        "Ġm",
        "o"
      ],
      [
        "Ġfor",
        "ma"
      ],
      [
        "i",
        "ci"
      ],
      [
        "u",
        "n"
      ],
      [
        "u",
        "lo"
      ],
      [
        "Ġa",
        "p"
      ],
      [
        "Ġs",
        "Ã©t"
      ],
      [
        "Ġf",
        "igura"
      ],
      [
        "ÃŃ",
        "n"
      ],
      [
        "Ġc",
        "lave"
      ],
      [
        "s",
        "tr"
      ],
      [
        "t",
        "ura"
      ],
      [
        "Ġp",
        "er"
      ],
      [
        "at",
        "ro"
      ],
      [
        "ĠÃ",
        "ł"
      ],
      [
        "Ġ",
        "L"
      ],
      [
        "c",
        "h"
      ],
      [
        "u",
        "l"
      ],
      [
        "Ġd",
        "as"
      ],
      [
        "on",
        "s"
      ],
      [
        "Ġtoca",
        "r"
      ],
      [
        "i",
        "c"
      ],
      [
        "Ġs",
        "usten"
      ],
      [
        "s",
        "im"
      ],
      [
        "Ġqu",
        "ando"
      ],
      [
        "Ġd",
        "uas"
      ],
      [
        "Ġm",
        "es"
      ],
      [
        "im",
        "ei"
      ],
      [
        "Ġent",
        "re"
      ],
      [
        "nc",
        "ia"
      ],
      [
        "ĠF",
        "Ã¡"
      ],
      [
        "d",
        "er"
      ],
      [
        "Ġqu",
        "int"
      ],
      [
        "ad",
        "as"
      ],
      [
        "Ġqu",
        "atro"
      ],
      [
        "Ġes",
        "c"
      ],
      [
        "Ġacor",
        "des"
      ],
      [
        "Ġnum",
        "a"
      ],
      [
        "ĠL",
        "Ã¡"
      ],
      [
        "Ġl",
        "inh"
      ],
      [
        "il",
        "iz"
      ],
      [
        "C",
        "A"
      ],
      [
        "Ġs",
        "o"
      ],
      [
        "Ġtr",
        "ÃŃ"
      ],
      [
        "if",
        "ica"
      ],
      [
        "l",
        "es"
      ],
      [
        "Ġsegu",
        "n"
      ],
      [
        "Ã³n",
        "ica"
      ],
      [
        "L",
        "O"
      ],
      [
        "a",
        "z"
      ],
      [
        "am",
        "os"
      ],
      [
        "if",
        "er"
      ],
      [
        "Ã©",
        "m"
      ],
      [
        "Ġ",
        "ve"
      ],
      [
        "ĠS",
        "ol"
      ],
      [
        "ut",
        "iliz"
      ],
      [
        "Ġe",
        "n"
      ],
      [
        "im",
        "inu"
      ],
      [
        "al",
        "mente"
      ],
      [
        "Ġinterval",
        "o"
      ],
      [
        "I",
        "T"
      ],
      [
        "m",
        "os"
      ],
      [
        "µ",
        "es"
      ],
      [
        "Ã",
        "µes"
      ],
      [
        "nt",
        "e"
      ],
      [
        "Ġbatid",
        "a"
      ],
      [
        "Q",
        "u"
      ],
      [
        "Ġd",
        "ifer"
      ],
      [
        "Ġa",
        "ument"
      ],
      [
        "str",
        "ument"
      ],
      [
        "T",
        "E"
      ],
      [
        "Ġa",
        "c"
      ],
      [
        "Ġs",
        "ua"
      ],
      [
        "em",
        "p"
      ],
      [
        "Ġ1",
        "0"
      ],
      [
        "b",
        "e"
      ],
      [
        "Ġm",
        "as"
      ],
      [
        "Ġv",
        "er"
      ],
      [
        "Ġpr",
        "imei"
      ],
      [
        "Ġg",
        "ra"
      ],
      [
        "i",
        "ta"
      ],
      [
        "l",
        "ch"
      ],
      [
        "Ġp",
        "ro"
      ],
      [
        "Ġpa",
        "us"
      ],
      [
        "âĢ",
        "Ŀ"
      ],
      [
        "Ġpe",
        "Ã§a"
      ],
      [
        "ĠsÃ©t",
        "ima"
      ],
      [
        "d",
        "os"
      ],
      [
        "s",
        "Ã£o"
      ],
      [
        "ia",
        "no"
      ],
      [
        "Ãª",
        "ncia"
      ],
      [
        "Ġsemit",
        "om"
      ],
      [
        "c",
        "e"
      ],
      [
        "Ġ",
        "N"
      ],
      [
        "is",
        "t"
      ],
      [
        "Ġ",
        "utiliz"
      ],
      [
        "Ġ",
        "r"
      ],
      [
        "Ġd",
        "iminu"
      ],
      [
        "co",
        "nt"
      ],
      [
        "Ġ1",
        "3"
      ],
      [
        "Ġbatid",
        "as"
      ],
      [
        "it",
        "ar"
      ],
      [
        "Ġex",
        "emp"
      ],
      [
        "Ġpar",
        "t"
      ],
      [
        "Ġmu",
        "ito"
      ],
      [
        "Ġ",
        "j"
      ],
      [
        "Ġa",
        "o"
      ],
      [
        "ra",
        "r"
      ],
      [
        "im",
        "as"
      ],
      [
        "ĠâĢ",
        "ľ"
      ],
      [
        "rm",
        "ad"
      ],
      [
        "Ġsusten",
        "ido"
      ],
      [
        "U",
        "LO"
      ],
      [
        "Ġ",
        "3"
      ],
      [
        "ar",
        "m"
      ],
      [
        "Ġent",
        "Ã£o"
      ],
      [
        "P",
        "AR"
      ],
      [
        "s",
        "a"
      ],
      [
        "ra",
        "m"
      ],
      [
        "Ġca",
        "da"
      ],
      [
        "Ġve",
        "z"
      ],
      [
        "PAR",
        "TE"
      ],
      [
        "Ġ",
        "V"
      ],
      [
        "Ġd",
        "ura"
      ],
      [
        "Ġf",
        "az"
      ],
      [
        "id",
        "a"
      ],
      [
        "b",
        "Ã©m"
      ],
      [
        "i",
        "bre"
      ],
      [
        "p",
        "e"
      ],
      [
        "u",
        "ta"
      ],
      [
        "Ġa",
        "rmad"
      ],
      [
        "Ġp",
        "iano"
      ],
      [
        "Ġt",
        "ec"
      ],
      [
        "ĠM",
        "i"
      ],
      [
        "CA",
        "P"
      ],
      [
        "Ġ",
        "gu"
      ],
      [
        "Ġ",
        "ir"
      ],
      [
        "ec",
        "er"
      ],
      [
        "Ġin",
        "strument"
      ],
      [
        "Ġtem",
        "po"
      ],
      [
        "imp",
        "les"
      ],
      [
        "ici",
        "on"
      ],
      [
        "ic",
        "as"
      ],
      [
        "Ã",
        "ĺ"
      ],
      [
        "ï",
        "ĥ"
      ],
      [
        "Ġc",
        "h"
      ],
      [
        "ÃŃn",
        "ima"
      ],
      [
        "ĠtrÃŃ",
        "ade"
      ],
      [
        "IT",
        "ULO"
      ],
      [
        "Ġexemp",
        "lo"
      ],
      [
        "CAP",
        "ITULO"
      ],
      [
        "ïĥ",
        "ĺ"
      ],
      [
        "Ġna",
        "tura"
      ],
      [
        "Ġpo",
        "de"
      ],
      [
        "Ġgu",
        "itar"
      ],
      [
        "v",
        "a"
      ],
      [
        "Ġas",
        "sim"
      ],
      [
        "ibre",
        "ve"
      ],
      [
        "u",
        "p"
      ],
      [
        "or",
        "n"
      ],
      [
        "ÃŃ",
        "t"
      ],
      [
        "Ġter",
        "Ã§a"
      ],
      [
        "d",
        "ia"
      ],
      [
        "l",
        "u"
      ],
      [
        "nt",
        "ar"
      ],
      [
        "ent",
        "es"
      ],
      [
        "ig",
        "n"
      ],
      [
        "Ġquint",
        "a"
      ],
      [
        "p",
        "ar"
      ],
      [
        "Ġ",
        "or"
      ],
      [
        "Ġqu",
        "al"
      ],
      [
        "ad",
        "os"
      ],
      [
        "ĠA",
        "s"
      ],
      [
        "ign",
        "ifica"
      ],
      [
        "j",
        "a"
      ],
      [
        "m",
        "e"
      ],
      [
        "n",
        "de"
      ],
      [
        "ve",
        "l"
      ],
      [
        "Ġ1",
        "1"
      ],
      [
        "am",
        "bÃ©m"
      ],
      [
        "Ġest",
        "Ã¡"
      ],
      [
        "Ġsegun",
        "da"
      ],
      [
        "d",
        "icion"
      ],
      [
        "Ġ",
        "4"
      ],
      [
        "Ġ1",
        "2"
      ],
      [
        "ĠS",
        "i"
      ],
      [
        "Ġcomp",
        "os"
      ],
      [
        "Ġarmad",
        "ura"
      ],
      [
        "a",
        "i"
      ],
      [
        "p",
        "ÃŃt"
      ],
      [
        "Ġp",
        "re"
      ],
      [
        "Ġs",
        "imples"
      ],
      [
        "d",
        "em"
      ],
      [
        "l",
        "e"
      ],
      [
        "Ġ",
        "imp"
      ],
      [
        "Ġd",
        "os"
      ],
      [
        "qu",
        "er"
      ],
      [
        "Ã³",
        "rm"
      ],
      [
        "Ġpor",
        "que"
      ],
      [
        "Ġpr",
        "Ã³"
      ],
      [
        "Ġsemit",
        "ons"
      ],
      [
        "Ġnatura",
        "l"
      ],
      [
        "Ġguitar",
        "ra"
      ],
      [
        "Ã³rm",
        "u"
      ],
      [
        "t",
        "er"
      ],
      [
        "Ġt",
        "ambÃ©m"
      ],
      [
        "it",
        "mo"
      ],
      [
        "Ġsem",
        "ibreve"
      ],
      [
        "ĠI",
        "I"
      ],
      [
        "ico",
        "s"
      ],
      [
        "ĠR",
        "Ã©"
      ],
      [
        "pÃŃt",
        "ulo"
      ],
      [
        "M",
        "O"
      ],
      [
        "b",
        "er"
      ],
      [
        "e",
        "ia"
      ],
      [
        "ad",
        "es"
      ],
      [
        "it",
        "as"
      ],
      [
        "Ġl",
        "e"
      ],
      [
        "pa",
        "Ã§"
      ],
      [
        "o",
        "u"
      ],
      [
        "Ġa",
        "t"
      ],
      [
        "en",
        "do"
      ],
      [
        "om",
        "o"
      ],
      [
        "Ġesca",
        "las"
      ],
      [
        "Ġper",
        "f"
      ],
      [
        "u",
        "ras"
      ],
      [
        "Ġ",
        "2"
      ],
      [
        "Ġs",
        "ignifica"
      ],
      [
        "er",
        "o"
      ],
      [
        "Ġcom",
        "e"
      ],
      [
        "n",
        "os"
      ],
      [
        "co",
        "m"
      ],
      [
        "Ġp",
        "ad"
      ],
      [
        "Ġt",
        "i"
      ],
      [
        "id",
        "os"
      ],
      [
        "ei",
        "as"
      ],
      [
        "Ġpo",
        "nt"
      ],
      [
        "Ġh",
        "arm"
      ],
      [
        "Ġpaus",
        "a"
      ],
      [
        "I",
        "A"
      ],
      [
        "Ġn",
        "as"
      ],
      [
        "Ã§",
        "Ãµes"
      ],
      [
        "Ã¡",
        "s"
      ],
      [
        "ĠII",
        "I"
      ],
      [
        "m",
        "as"
      ],
      [
        "u",
        "do"
      ],
      [
        "Ġ",
        "H"
      ],
      [
        "Ġo",
        "ita"
      ],
      [
        "Ġes",
        "paÃ§"
      ],
      [
        "Ãª",
        "m"
      ],
      [
        "Ġtem",
        "os"
      ],
      [
        "Ġcon",
        "s"
      ],
      [
        "Ġlinh",
        "as"
      ],
      [
        "Ġr",
        "itmo"
      ],
      [
        "A",
        "s"
      ],
      [
        "r",
        "ia"
      ],
      [
        "Ġs",
        "a"
      ],
      [
        "Ġco",
        "lch"
      ],
      [
        "en",
        "as"
      ],
      [
        "ĠS",
        "e"
      ],
      [
        "Ġesc",
        "re"
      ],
      [
        "Qu",
        "ando"
      ],
      [
        "Ġch",
        "am"
      ],
      [
        "e",
        "or"
      ],
      [
        "l",
        "Ã³"
      ],
      [
        "m",
        "in"
      ],
      [
        "Ġt",
        "Ã³nica"
      ],
      [
        "um",
        "a"
      ],
      [
        "Ġf",
        "Ã³rmu"
      ],
      [
        "al",
        "or"
      ],
      [
        "Ãº",
        "m"
      ],
      [
        "Ġse",
        "u"
      ],
      [
        "Ġou",
        "v"
      ],
      [
        "Ġca",
        "d"
      ],
      [
        "ĠU",
        "ma"
      ],
      [
        "Ġlinh",
        "a"
      ],
      [
        "ai",
        "x"
      ],
      [
        "Ġpad",
        "r"
      ],
      [
        "g",
        "em"
      ],
      [
        "Ġo",
        "nde"
      ],
      [
        "Ġf",
        "o"
      ],
      [
        "Ġpa",
        "uta"
      ],
      [
        "lo",
        "ca"
      ],
      [
        "Ġv",
        "alor"
      ],
      [
        "tr",
        "as"
      ],
      [
        "ĠprÃ³",
        "x"
      ],
      [
        "c",
        "ulo"
      ],
      [
        "d",
        "u"
      ],
      [
        "p",
        "res"
      ],
      [
        "Ġ",
        "un"
      ],
      [
        "Ġa",
        "dicion"
      ],
      [
        "Ġn",
        "os"
      ],
      [
        "Ġt",
        "orn"
      ],
      [
        "ar",
        "ras"
      ],
      [
        "in",
        "co"
      ],
      [
        "ei",
        "ta"
      ],
      [
        "ĠI",
        "V"
      ],
      [
        "ĠE",
        "s"
      ],
      [
        "Ġmes",
        "ma"
      ],
      [
        "Ġso",
        "bre"
      ],
      [
        "a",
        "ra"
      ],
      [
        "g",
        "res"
      ],
      [
        "p",
        "ec"
      ],
      [
        "Ġt",
        "Ãªm"
      ],
      [
        "Ġqu",
        "ar"
      ],
      [
        "im",
        "o"
      ],
      [
        "Ġmenor",
        "es"
      ],
      [
        "ĠU",
        "M"
      ],
      [
        "as",
        "s"
      ],
      [
        "Ġf",
        "ras"
      ],
      [
        "D",
        "ica"
      ],
      [
        "U",
        "ma"
      ],
      [
        "g",
        "o"
      ],
      [
        "l",
        "h"
      ],
      [
        "n",
        "do"
      ],
      [
        "Ġ",
        "7"
      ],
      [
        "Ġ",
        "Ãº"
      ],
      [
        "Ġd",
        "iv"
      ],
      [
        "Ġp",
        "os"
      ],
      [
        "it",
        "or"
      ],
      [
        "am",
        "ente"
      ],
      [
        "pa",
        "ra"
      ],
      [
        "ant",
        "o"
      ],
      [
        "Ġprimei",
        "ra"
      ],
      [
        "Ġat",
        "Ã©"
      ],
      [
        "S",
        "e"
      ],
      [
        "Ġn",
        "Ãºm"
      ],
      [
        "ec",
        "e"
      ],
      [
        "Ġinterval",
        "os"
      ],
      [
        "Ġen",
        "cont"
      ],
      [
        "Ġprimei",
        "ro"
      ],
      [
        "d",
        "ica"
      ],
      [
        "i",
        "o"
      ],
      [
        "p",
        "os"
      ],
      [
        "u",
        "nt"
      ],
      [
        "Ġs",
        "om"
      ],
      [
        "Ġt",
        "eor"
      ],
      [
        "ent",
        "o"
      ],
      [
        "ta",
        "mente"
      ],
      [
        "Ġb",
        "arras"
      ],
      [
        "Ġ1",
        "4"
      ],
      [
        "Ġmes",
        "mo"
      ],
      [
        "ist",
        "em"
      ],
      [
        "lu",
        "es"
      ],
      [
        "ĠespaÃ§",
        "os"
      ],
      [
        "Q",
        "U"
      ],
      [
        "h",
        "ecer"
      ],
      [
        "t",
        "ade"
      ],
      [
        "Ġes",
        "te"
      ],
      [
        "Ġto",
        "m"
      ],
      [
        "ei",
        "ra"
      ],
      [
        "Ġpar",
        "te"
      ],
      [
        "Ġcome",
        "Ã§"
      ],
      [
        ")",
        "."
      ],
      [
        "N",
        "IA"
      ],
      [
        "e",
        "ra"
      ],
      [
        "m",
        "b"
      ],
      [
        "t",
        "iv"
      ],
      [
        "Ã",
        "¢"
      ],
      [
        "Ġ",
        "5"
      ],
      [
        "Ġ",
        "6"
      ],
      [
        "em",
        "bre"
      ],
      [
        "ir",
        "culo"
      ],
      [
        "AR",
        "MO"
      ],
      [
        "Ġinstrument",
        "os"
      ],
      [
        "ĠH",
        "ARMO"
      ],
      [
        "ĠHARMO",
        "NIA"
      ],
      [
        "O",
        "R"
      ],
      [
        "P",
        "or"
      ],
      [
        "a",
        "is"
      ],
      [
        "Ġ",
        "res"
      ],
      [
        "Ġa",
        "nt"
      ],
      [
        "co",
        "n"
      ],
      [
        "Ġm",
        "ÃŃnima"
      ],
      [
        "ca",
        "b"
      ],
      [
        "Ġes",
        "ta"
      ],
      [
        "Ġes",
        "pec"
      ],
      [
        "Ġmaior",
        "es"
      ],
      [
        "Ġvez",
        "es"
      ],
      [
        "par",
        "e"
      ],
      [
        "Ġescre",
        "ver"
      ],
      [
        "ass",
        "os"
      ],
      [
        "R",
        "O"
      ],
      [
        "s",
        "em"
      ],
      [
        "Ġ",
        "QU"
      ],
      [
        "Ġd",
        "is"
      ],
      [
        "en",
        "der"
      ],
      [
        "Ã§",
        "as"
      ],
      [
        "Ġb",
        "aix"
      ],
      [
        "Ġse",
        "ja"
      ],
      [
        "Ġc",
        "ri"
      ],
      [
        "Ġj",
        "Ã¡"
      ],
      [
        "com",
        "p"
      ],
      [
        "Ġpadr",
        "Ã£o"
      ],
      [
        "Ġm",
        "ar"
      ],
      [
        "es",
        "te"
      ],
      [
        "Ġqu",
        "ant"
      ],
      [
        "is",
        "to"
      ],
      [
        "Ġno",
        "me"
      ],
      [
        "Ġb",
        "ra"
      ],
      [
        "Ġc",
        "as"
      ],
      [
        "Ġca",
        "pÃŃtulo"
      ],
      [
        "se",
        "gu"
      ],
      [
        "Ġmusica",
        "is"
      ],
      [
        "Ġme",
        "lÃ³"
      ],
      [
        "ĠprÃ³x",
        "ima"
      ],
      [
        "A",
        "T"
      ],
      [
        "a",
        "v"
      ],
      [
        "o",
        "nt"
      ],
      [
        "Ġ",
        "us"
      ],
      [
        "Ġt",
        "ra"
      ],
      [
        "es",
        "so"
      ],
      [
        "Ġal",
        "g"
      ],
      [
        "Ġap",
        "ar"
      ],
      [
        "Ġcad",
        "Ãªncia"
      ],
      [
        "L",
        "embre"
      ],
      [
        "e",
        "pare"
      ],
      [
        "g",
        "ar"
      ],
      [
        "l",
        "ar"
      ],
      [
        "u",
        "b"
      ],
      [
        "Ġ",
        "B"
      ],
      [
        "ca",
        "r"
      ],
      [
        "Ġco",
        "r"
      ],
      [
        "in",
        "al"
      ],
      [
        "ÃŃ",
        "s"
      ],
      [
        "ÃŃ",
        "vel"
      ],
      [
        "ci",
        "l"
      ],
      [
        "ri",
        "ta"
      ],
      [
        "Ġap",
        "enas"
      ],
      [
        "Ġac",
        "ent"
      ],
      [
        "Ġpro",
        "gres"
      ],
      [
        "Ġir",
        "Ã¡"
      ],
      [
        "Ġperf",
        "eita"
      ],
      [
        "ĠnÃºm",
        "ero"
      ],
      [
        "n",
        "a"
      ],
      [
        "Ġ",
        "9"
      ],
      [
        "nt",
        "Ã£o"
      ],
      [
        "Ġp",
        "al"
      ],
      [
        "Ġb",
        "lues"
      ],
      [
        "Ġc",
        "ima"
      ],
      [
        "ci",
        "as"
      ],
      [
        "Ġcont",
        "ar"
      ],
      [
        "Ġter",
        "c"
      ],
      [
        "ua",
        "Ã§Ã£o"
      ],
      [
        "Ġdifer",
        "entes"
      ],
      [
        "Ġfaz",
        "er"
      ],
      [
        "Ġoita",
        "va"
      ],
      [
        "ĠfÃ³rmu",
        "la"
      ],
      [
        "Ġdiv",
        "id"
      ],
      [
        "AT",
        "RO"
      ],
      [
        ")",
        ","
      ],
      [
        "A",
        "S"
      ],
      [
        "c",
        "is"
      ],
      [
        "l",
        "ado"
      ],
      [
        "v",
        "o"
      ],
      [
        "Ġd",
        "iz"
      ],
      [
        "Ġa",
        "cab"
      ],
      [
        "Ġp",
        "esso"
      ],
      [
        "Ã¡",
        "ri"
      ],
      [
        "Ġc",
        "inco"
      ],
      [
        "Ġ1",
        "6"
      ],
      [
        "lo",
        "dia"
      ],
      [
        "Ãª",
        "n"
      ],
      [
        "Ġto",
        "das"
      ],
      [
        "Ġin",
        "ici"
      ],
      [
        "Ġh",
        "Ã¡"
      ],
      [
        "Ġme",
        "tade"
      ],
      [
        "ant",
        "e"
      ],
      [
        "Ġquint",
        "as"
      ],
      [
        "Ġpaus",
        "as"
      ],
      [
        "Ġdiminu",
        "ta"
      ],
      [
        "Ġcompos",
        "itor"
      ],
      [
        "Ġteor",
        "ia"
      ],
      [
        "I",
        "S"
      ],
      [
        "p",
        "r"
      ],
      [
        "s",
        "on"
      ],
      [
        "s",
        "to"
      ],
      [
        "Ġ",
        "|"
      ],
      [
        "Ġs",
        "ent"
      ],
      [
        "or",
        "ta"
      ],
      [
        "qu",
        "anto"
      ],
      [
        "Ġco",
        "loca"
      ],
      [
        "en",
        "d"
      ],
      [
        "en",
        "h"
      ],
      [
        "id",
        "as"
      ],
      [
        "on",
        "al"
      ],
      [
        "Ġl",
        "er"
      ],
      [
        "Ġl",
        "ig"
      ],
      [
        "Ġin",
        "ver"
      ],
      [
        "ico",
        "lch"
      ],
      [
        "Ġest",
        "Ã£o"
      ],
      [
        "ĠP",
        "or"
      ],
      [
        "ÃŃn",
        "imas"
      ],
      [
        "Ġdifer",
        "ente"
      ],
      [
        "Ġqual",
        "idade"
      ],
      [
        "Ġpre",
        "cis"
      ],
      [
        "Ġfras",
        "e"
      ],
      [
        "Lembre",
        "te"
      ],
      [
        "Ãªn",
        "cias"
      ],
      [
        "C",
        "omo"
      ],
      [
        "R",
        "Ã"
      ],
      [
        "c",
        "as"
      ],
      [
        "Ġ",
        "G"
      ],
      [
        "Ĭ",
        "S"
      ],
      [
        "Ġp",
        "en"
      ],
      [
        "ar",
        "ia"
      ],
      [
        "it",
        "os"
      ],
      [
        "int",
        "e"
      ],
      [
        "Ġv",
        "i"
      ],
      [
        "Ġsem",
        "ÃŃnima"
      ],
      [
        "Ġsem",
        "icolch"
      ],
      [
        "ĠT",
        "o"
      ],
      [
        "ĠT",
        "RÃ"
      ],
      [
        "Ġre",
        "g"
      ],
      [
        "ĠO",
        "s"
      ],
      [
        "Ġmo",
        "ntar"
      ],
      [
        "Ġsusten",
        "idos"
      ],
      [
        "Ġesc",
        "rita"
      ],
      [
        "ĠN",
        "o"
      ],
      [
        "Ġdura",
        "Ã§Ã£o"
      ],
      [
        "Ġinstrument",
        "o"
      ],
      [
        "Ġor",
        "dem"
      ],
      [
        "ĠÃº",
        "n"
      ],
      [
        "ĠQU",
        "ATRO"
      ],
      [
        "ĠTRÃ",
        "ĬS"
      ],
      [
        ")",
        ":"
      ],
      [
        "E",
        "S"
      ],
      [
        "i",
        "Ã§Ã£o"
      ],
      [
        "l",
        "os"
      ],
      [
        "n",
        "s"
      ],
      [
        "t",
        "ar"
      ],
      [
        "Ġa",
        "r"
      ],
      [
        "im",
        "ento"
      ],
      [
        "in",
        "do"
      ],
      [
        "en",
        "Ã§a"
      ],
      [
        "Ġb",
        "as"
      ],
      [
        "âĢ",
        "¢"
      ],
      [
        "Ġ1",
        "5"
      ],
      [
        "Ġl",
        "iv"
      ],
      [
        "Ġpo",
        "der"
      ],
      [
        "Ġpo",
        "dem"
      ],
      [
        "Ġpe",
        "la"
      ],
      [
        "Ġre",
        "la"
      ],
      [
        "Ġal",
        "tura"
      ],
      [
        "Ġme",
        "lodia"
      ],
      [
        "ĠtrÃŃ",
        "ades"
      ],
      [
        "Ġtec",
        "la"
      ],
      [
        "ter",
        "min"
      ],
      [
        "Ġencont",
        "rar"
      ],
      [
        "Ġinici",
        "o"
      ],
      [
        "E",
        "s"
      ],
      [
        "b",
        "al"
      ],
      [
        "f",
        "er"
      ],
      [
        "p",
        "re"
      ],
      [
        "t",
        "es"
      ],
      [
        "Ġ",
        "isto"
      ],
      [
        "Ġd",
        "up"
      ],
      [
        "es",
        "s"
      ],
      [
        "is",
        "te"
      ],
      [
        "Ġf",
        "Ã¡"
      ],
      [
        "Ġf",
        "al"
      ],
      [
        "Ġv",
        "ol"
      ],
      [
        "Ġnota",
        "Ã§Ã£o"
      ],
      [
        "ĠÃ",
        "ī"
      ],
      [
        "Ġen",
        "quanto"
      ],
      [
        "Ġaument",
        "ada"
      ],
      [
        "pe",
        "t"
      ],
      [
        "Ġqual",
        "quer"
      ],
      [
        "Ġti",
        "po"
      ],
      [
        "Ġcolch",
        "eias"
      ],
      [
        "Ġquant",
        "idade"
      ],
      [
        "c",
        "id"
      ],
      [
        "l",
        "ica"
      ],
      [
        "Ġ",
        "ra"
      ],
      [
        "Ġp",
        "ul"
      ],
      [
        "Ġs",
        "Ã³"
      ],
      [
        "qu",
        "i"
      ],
      [
        "Ġcom",
        "um"
      ],
      [
        "ei",
        "ro"
      ],
      [
        "Ġaument",
        "ado"
      ],
      [
        "Ġtec",
        "lado"
      ],
      [
        "Ġimp",
        "orta"
      ],
      [
        "du",
        "z"
      ],
      [
        "Ġpesso",
        "as"
      ],
      [
        "Ġliv",
        "ro"
      ],
      [
        "1",
        "0"
      ],
      [
        "P",
        "ara"
      ],
      [
        "a",
        "gem"
      ],
      [
        "a",
        "tamente"
      ],
      [
        "c",
        "ia"
      ],
      [
        "e",
        "ito"
      ],
      [
        "i",
        "ra"
      ],
      [
        "i",
        "re"
      ],
      [
        "m",
        "u"
      ],
      [
        "p",
        "er"
      ],
      [
        "Ġ",
        "id"
      ],
      [
        "Ġ",
        "ro"
      ],
      [
        "Ġ",
        "Figura"
      ],
      [
        "Ġa",
        "b"
      ],
      [
        "Ġt",
        "udo"
      ],
      [
        "or",
        "m"
      ],
      [
        "im",
        "os"
      ],
      [
        "en",
        "ci"
      ],
      [
        "us",
        "a"
      ],
      [
        "ĠT",
        "om"
      ],
      [
        "po",
        "is"
      ],
      [
        "Ġtoca",
        "da"
      ],
      [
        "Ġcont",
        "em"
      ],
      [
        "Ġal",
        "gu"
      ],
      [
        "ĠU",
        "m"
      ],
      [
        "str",
        "u"
      ],
      [
        "Ġpart",
        "it"
      ],
      [
        "Ġcolch",
        "eia"
      ],
      [
        "Ġfo",
        "i"
      ],
      [
        "Ġpos",
        "s"
      ],
      [
        "Ġcri",
        "ar"
      ],
      [
        "ĠmelÃ³",
        "dica"
      ],
      [
        "ÃŃs",
        "son"
      ],
      [
        "1",
        "2"
      ],
      [
        "N",
        "este"
      ],
      [
        "h",
        "ec"
      ],
      [
        "m",
        "Ãºs"
      ],
      [
        "o",
        "c"
      ],
      [
        "t",
        "uras"
      ],
      [
        "u",
        "d"
      ],
      [
        "u",
        "r"
      ],
      [
        "u",
        "co"
      ],
      [
        "u",
        "tas"
      ],
      [
        "v",
        "as"
      ],
      [
        "x",
        "istem"
      ],
      [
        "Ġd",
        "ire"
      ],
      [
        "nt",
        "es"
      ],
      [
        "co",
        "mo"
      ],
      [
        "Ġde",
        "termin"
      ],
      [
        "Ġt",
        "a"
      ],
      [
        "em",
        "ente"
      ],
      [
        "Ġqu",
        "er"
      ],
      [
        "Ġno",
        "vo"
      ],
      [
        "Ġb",
        "an"
      ],
      [
        "Ġb",
        "Ã¡s"
      ],
      [
        "Ġse",
        "c"
      ],
      [
        "Ġou",
        "tr"
      ],
      [
        "on",
        "ia"
      ],
      [
        "ĠI",
        "sto"
      ],
      [
        "Ġcomp",
        "assos"
      ],
      [
        "Ġpo",
        "p"
      ],
      [
        "Ġpe",
        "d"
      ],
      [
        "Ġcont",
        "inu"
      ],
      [
        "Ġest",
        "ar"
      ],
      [
        "Ġmo",
        "nt"
      ],
      [
        "ul",
        "ar"
      ],
      [
        "Ġdifer",
        "enÃ§a"
      ],
      [
        "Ġver",
        "d"
      ],
      [
        "Ġsimples",
        "mente"
      ],
      [
        "Ġpont",
        "o"
      ],
      [
        "Ã¢",
        "m"
      ],
      [
        "Ġalg",
        "um"
      ],
      [
        "Ġacent",
        "uaÃ§Ã£o"
      ],
      [
        "Ġpal",
        "av"
      ],
      [
        "Ġoutr",
        "os"
      ],
      [
        "U",
        "S"
      ],
      [
        "f",
        "or"
      ],
      [
        "l",
        "em"
      ],
      [
        "r",
        "ÃŃ"
      ],
      [
        "s",
        "Ãµes"
      ],
      [
        "t",
        "ro"
      ],
      [
        "Ġa",
        "ut"
      ],
      [
        "Ġa",
        "mb"
      ],
      [
        "Ġde",
        "ver"
      ],
      [
        "Ġt",
        "onal"
      ],
      [
        "is",
        "tas"
      ],
      [
        "in",
        "Ã¢m"
      ],
      [
        "Ġf",
        "ica"
      ],
      [
        "ve",
        "is"
      ],
      [
        "Ġou",
        "tras"
      ],
      [
        "ĠmÃºs",
        "icos"
      ],
      [
        "int",
        "es"
      ],
      [
        "Ġto",
        "dos"
      ],
      [
        "tr",
        "Ã³n"
      ],
      [
        "Ġpe",
        "lo"
      ],
      [
        "Ġcon",
        "stru"
      ],
      [
        "Ġti",
        "pos"
      ],
      [
        "pres",
        "ent"
      ],
      [
        "tiv",
        "a"
      ],
      [
        "Ġbaix",
        "o"
      ],
      [
        "bal",
        "h"
      ],
      [
        "Ġvol",
        "ta"
      ],
      [
        "1",
        "1"
      ],
      [
        "C",
        "a"
      ],
      [
        "I",
        "CA"
      ],
      [
        "U",
        "M"
      ],
      [
        "a",
        "Ã§Ã£o"
      ],
      [
        "e",
        "x"
      ],
      [
        "f",
        "in"
      ],
      [
        "u",
        "las"
      ],
      [
        "v",
        "es"
      ],
      [
        "Ġ",
        "lo"
      ],
      [
        "Ġ",
        "Qu"
      ],
      [
        "Ġ",
        "Quando"
      ],
      [
        "er",
        "ior"
      ],
      [
        "Ġde",
        "v"
      ],
      [
        "Ġde",
        "ve"
      ],
      [
        "Ġde",
        "pois"
      ],
      [
        "Ġco",
        "is"
      ],
      [
        "Ġo",
        "ito"
      ],
      [
        "is",
        "ta"
      ],
      [
        "Ġf",
        "inal"
      ],
      [
        "id",
        "era"
      ],
      [
        "Ã§",
        "o"
      ],
      [
        "int",
        "erval"
      ],
      [
        "cor",
        "des"
      ],
      [
        "iv",
        "er"
      ],
      [
        "Ġre",
        "present"
      ],
      [
        "Ġex",
        "atamente"
      ],
      [
        "ĠR",
        "epare"
      ],
      [
        "Ġap",
        "r"
      ],
      [
        "Ġesc",
        "r"
      ],
      [
        "Ġac",
        "id"
      ],
      [
        "Ġutiliz",
        "adas"
      ],
      [
        "Ġir",
        "emos"
      ],
      [
        "quer",
        "da"
      ],
      [
        "Ġharm",
        "Ã³n"
      ],
      [
        "Ã¡s",
        "s"
      ],
      [
        "Ġsa",
        "ber"
      ],
      [
        "Ġpen",
        "s"
      ],
      [
        "orm",
        "almente"
      ],
      [
        "0",
        "0"
      ],
      [
        "D",
        "e"
      ],
      [
        "N",
        "T"
      ],
      [
        "N",
        "o"
      ],
      [
        "U",
        "m"
      ],
      [
        "p",
        "ro"
      ],
      [
        "Ġs",
        "uas"
      ],
      [
        "or",
        "no"
      ],
      [
        "em",
        "po"
      ],
      [
        "Ġqu",
        "is"
      ],
      [
        "ent",
        "al"
      ],
      [
        "in",
        "da"
      ],
      [
        "Ġf",
        "a"
      ],
      [
        "Ġes",
        "querda"
      ],
      [
        "Ã³",
        "is"
      ],
      [
        "on",
        "hecer"
      ],
      [
        "ir",
        "as"
      ],
      [
        "ĠD",
        "O"
      ],
      [
        "Ġpo",
        "uco"
      ],
      [
        "Ġin",
        "c"
      ],
      [
        "usica",
        "l"
      ],
      [
        "no",
        "ta"
      ],
      [
        "Ã©t",
        "imas"
      ],
      [
        "Ġac",
        "ima"
      ],
      [
        "Ġgra",
        "u"
      ],
      [
        "Ġj",
        "unt"
      ],
      [
        "dia",
        "nte"
      ],
      [
        "Ġcham",
        "ada"
      ],
      [
        "ĠcomeÃ§",
        "ar"
      ],
      [
        "comp",
        "asso"
      ],
      [
        "ĠÃºn",
        "ica"
      ],
      [
        "Ġpoder",
        "Ã¡"
      ],
      [
        "ĠfÃ¡",
        "cil"
      ],
      [
        "mÃºs",
        "ica"
      ],
      [
        "Ca",
        "pÃŃtulo"
      ],
      [
        "O",
        "s"
      ],
      [
        "g",
        "an"
      ],
      [
        "i",
        "i"
      ],
      [
        "l",
        "iz"
      ],
      [
        "l",
        "Ã¡ss"
      ],
      [
        "n",
        "da"
      ],
      [
        "r",
        "ente"
      ],
      [
        "Ġ",
        "8"
      ],
      [
        "Ġ",
        "igu"
      ],
      [
        "Ġa",
        "os"
      ],
      [
        "nt",
        "ro"
      ],
      [
        "ad",
        "or"
      ],
      [
        "Ġcom",
        "un"
      ],
      [
        "Ġf",
        "un"
      ],
      [
        "re",
        "qu"
      ],
      [
        "Ġse",
        "x"
      ],
      [
        "Ġse",
        "para"
      ],
      [
        "Ġc",
        "er"
      ],
      [
        "ĠmÃºs",
        "icas"
      ],
      [
        "ĠD",
        "E"
      ],
      [
        "Ġmaior",
        "ia"
      ],
      [
        "Ġre",
        "pet"
      ],
      [
        "Ġter",
        "Ã§as"
      ],
      [
        "ĠC",
        "irculo"
      ],
      [
        "ĠC",
        "ont"
      ],
      [
        "ĠC",
        "onhecer"
      ],
      [
        "Ġmu",
        "itas"
      ],
      [
        "ĠR",
        "IT"
      ],
      [
        "ĠsÃ©t",
        "imas"
      ],
      [
        "ul",
        "t"
      ],
      [
        "âĢĿ",
        "."
      ],
      [
        "Ġpart",
        "es"
      ],
      [
        "Ġsa",
        "be"
      ],
      [
        "Ġun",
        "ÃŃsson"
      ],
      [
        "Ġprogres",
        "sÃ£o"
      ],
      [
        "Ġcompositor",
        "es"
      ],
      [
        "ĠTo",
        "car"
      ],
      [
        "Ġdire",
        "ita"
      ],
      [
        "Ġban",
        "de"
      ],
      [
        "Ġsec",
        "Ã§Ã£o"
      ],
      [
        "Ġdever",
        "Ã¡"
      ],
      [
        "Ġtonal",
        "idade"
      ],
      [
        "ĠDO",
        "IS"
      ],
      [
        "ĠRIT",
        "MO"
      ],
      [
        "1",
        "3"
      ],
      [
        "1",
        "5"
      ],
      [
        "E",
        "ntÃ£o"
      ],
      [
        "b",
        "em"
      ],
      [
        "i",
        "os"
      ],
      [
        "t",
        "ica"
      ],
      [
        "u",
        "da"
      ],
      [
        "Ġ",
        "+"
      ],
      [
        "qu",
        "es"
      ],
      [
        "id",
        "ades"
      ],
      [
        "Ã³",
        "ria"
      ],
      [
        "us",
        "as"
      ],
      [
        "Ġma",
        "nt"
      ],
      [
        "Ġse",
        "is"
      ],
      [
        "Ġc",
        "lÃ¡ss"
      ],
      [
        "Ġcomp",
        "le"
      ],
      [
        "Ġfor",
        "mas"
      ],
      [
        "Ġser",
        "em"
      ],
      [
        "Ġter",
        "Ã¡"
      ],
      [
        "Ġsegu",
        "ir"
      ],
      [
        "Ġdes",
        "enh"
      ],
      [
        "Ġsegun",
        "do"
      ],
      [
        "Ġgra",
        "us"
      ],
      [
        "Ġtec",
        "las"
      ],
      [
        "Ġharm",
        "onia"
      ],
      [
        "ĠfÃ³rmu",
        "las"
      ],
      [
        "go",
        "ra"
      ],
      [
        "Ġespec",
        "i"
      ],
      [
        "Ġtra",
        "balh"
      ],
      [
        "Ġaut",
        "ent"
      ],
      [
        "1",
        "4"
      ],
      [
        "1",
        "6"
      ],
      [
        "b",
        "atid"
      ],
      [
        "c",
        "k"
      ],
      [
        "d",
        "emos"
      ],
      [
        "g",
        "ra"
      ],
      [
        "i",
        "as"
      ],
      [
        "m",
        "es"
      ],
      [
        "m",
        "it"
      ],
      [
        "o",
        "ntar"
      ],
      [
        "p",
        "or"
      ],
      [
        "v",
        "is"
      ],
      [
        "v",
        "ol"
      ],
      [
        "Ġ",
        "-"
      ],
      [
        "Ġ",
        "ima"
      ],
      [
        "Ġd",
        "inÃ¢m"
      ],
      [
        "Ġa",
        "j"
      ],
      [
        "Ġn",
        "un"
      ],
      [
        "ca",
        "las"
      ],
      [
        "Ġde",
        "ntro"
      ],
      [
        "qu",
        "en"
      ],
      [
        "im",
        "e"
      ],
      [
        "ent",
        "ra"
      ],
      [
        "in",
        "o"
      ],
      [
        "in",
        "strument"
      ],
      [
        "Ġf",
        "im"
      ],
      [
        "Ġes",
        "s"
      ],
      [
        "ÃŃ",
        "der"
      ],
      [
        "Ġc",
        "irculo"
      ],
      [
        "ro",
        "vis"
      ],
      [
        "Ġou",
        "tra"
      ],
      [
        "Ġou",
        "tro"
      ],
      [
        "Ġin",
        "v"
      ],
      [
        "ĠM",
        "a"
      ],
      [
        "ĠM",
        "US"
      ],
      [
        "Ġtoca",
        "das"
      ],
      [
        "Ġsegu",
        "inte"
      ],
      [
        "Ġcon",
        "segu"
      ],
      [
        "Ġcon",
        "hec"
      ],
      [
        "Ġme",
        "trÃ³n"
      ],
      [
        "Ġdes",
        "c"
      ],
      [
        "ĠsÃ©t",
        "imo"
      ],
      [
        "ĠÃł",
        "s"
      ],
      [
        "Ġmes",
        "mas"
      ],
      [
        "Ġimp",
        "rovis"
      ],
      [
        "Ġle",
        "tras"
      ],
      [
        "Ġpont",
        "u"
      ],
      [
        "Ġcons",
        "idera"
      ],
      [
        "Ġtorn",
        "a"
      ],
      [
        "Ġtorn",
        "ar"
      ],
      [
        "Ġquar",
        "ta"
      ],
      [
        "Ġbra",
        "Ã§o"
      ],
      [
        "Ã¡ri",
        "os"
      ],
      [
        "Ġreg",
        "ras"
      ],
      [
        "Ġinc",
        "lu"
      ],
      [
        "gan",
        "iz"
      ],
      [
        "Ġnun",
        "ca"
      ],
      [
        "ĠMUS",
        "ICA"
      ],
      [
        "M",
        "A"
      ],
      [
        "b",
        "ra"
      ],
      [
        "f",
        "ici"
      ],
      [
        "i",
        "on"
      ],
      [
        "l",
        "t"
      ],
      [
        "p",
        "it"
      ],
      [
        "s",
        "usten"
      ],
      [
        "Ġ",
        "="
      ],
      [
        "Ġa",
        "cont"
      ],
      [
        "Ġa",
        "inda"
      ],
      [
        "Ġs",
        "ub"
      ],
      [
        "Ġn",
        "es"
      ],
      [
        "er",
        "os"
      ],
      [
        "Ã©",
        "c"
      ],
      [
        "Ġf",
        "rente"
      ],
      [
        "Ġf",
        "requ"
      ],
      [
        "Ġes",
        "tas"
      ],
      [
        "ÃŃ",
        "o"
      ],
      [
        "ÃŃ",
        "veis"
      ],
      [
        "on",
        "a"
      ],
      [
        "ec",
        "ess"
      ],
      [
        "Ġl",
        "ÃŃder"
      ],
      [
        "Ġsem",
        "pre"
      ],
      [
        "ir",
        "os"
      ],
      [
        "cor",
        "r"
      ],
      [
        "Ġre",
        "fer"
      ],
      [
        "Ġser",
        "ia"
      ],
      [
        "Ġpr",
        "in"
      ],
      [
        "il",
        "us"
      ],
      [
        "ĠC",
        "ada"
      ],
      [
        "ĠE",
        "ntÃ£o"
      ],
      [
        "Ġbem",
        "Ã³is"
      ],
      [
        "Ġmu",
        "da"
      ],
      [
        "ĠP",
        "ara"
      ],
      [
        "az",
        "z"
      ],
      [
        "Ġgra",
        "ve"
      ],
      [
        "Ġpro",
        "duz"
      ],
      [
        "ce",
        "ber"
      ],
      [
        "Ġpart",
        "ir"
      ],
      [
        "ĠAs",
        "sim"
      ],
      [
        "Ġcome",
        "Ã§a"
      ],
      [
        "Ġcons",
        "iste"
      ],
      [
        "Ġcham",
        "ado"
      ],
      [
        "min",
        "ante"
      ],
      [
        "Ġcad",
        "Ãªncias"
      ],
      [
        "ĠEs",
        "te"
      ],
      [
        "Ġquar",
        "tas"
      ],
      [
        "Ġquar",
        "to"
      ],
      [
        "Ġfras",
        "es"
      ],
      [
        "Ġmar",
        "cas"
      ],
      [
        "lar",
        "o"
      ],
      [
        "Ġprogres",
        "sÃµes"
      ],
      [
        "Ġsemicolch",
        "eia"
      ],
      [
        "Ġimporta",
        "nte"
      ],
      [
        "Ġro",
        "ck"
      ],
      [
        "oc",
        "Ãª"
      ],
      [
        "Ġpalav",
        "ras"
      ],
      [
        "Ġamb",
        "as"
      ],
      [
        "Ġquis",
        "er"
      ],
      [
        "Ġcomun",
        "s"
      ],
      [
        "Ġespeci",
        "almente"
      ],
      [
        "entra",
        "l"
      ],
      [
        "A",
        "B"
      ],
      [
        "C",
        "OR"
      ],
      [
        "D",
        "Ã³"
      ],
      [
        "D",
        "ES"
      ],
      [
        "b",
        "rar"
      ],
      [
        "e",
        "d"
      ],
      [
        "e",
        "itas"
      ],
      [
        "i",
        "Ã£o"
      ],
      [
        "n",
        "Ã£o"
      ],
      [
        "p",
        "end"
      ],
      [
        "Ġ",
        "i"
      ],
      [
        "as",
        "te"
      ],
      [
        "Ġa",
        "que"
      ],
      [
        "Ġa",
        "nos"
      ],
      [
        "Ġe",
        "ra"
      ],
      [
        "Ġs",
        "up"
      ],
      [
        "Ġn",
        "ormalmente"
      ],
      [
        "er",
        "c"
      ],
      [
        "er",
        "t"
      ],
      [
        "Ġt",
        "ons"
      ],
      [
        "qu",
        "iv"
      ],
      [
        "ar",
        "te"
      ],
      [
        "ent",
        "ar"
      ],
      [
        "ta",
        "l"
      ],
      [
        "ta",
        "m"
      ],
      [
        "en",
        "os"
      ],
      [
        "gu",
        "lar"
      ],
      [
        "Ã¡",
        "vel"
      ],
      [
        "Ġc",
        "entral"
      ],
      [
        "int",
        "as"
      ],
      [
        "ĠA",
        "COR"
      ],
      [
        "Ġv",
        "Ã¡rios"
      ],
      [
        "Ġsem",
        "ÃŃnimas"
      ],
      [
        "Ġfor",
        "te"
      ],
      [
        "Ġfor",
        "mu"
      ],
      [
        "ĠT",
        "rÃŃ"
      ],
      [
        "Ġser",
        "Ã¡"
      ],
      [
        "il",
        "h"
      ],
      [
        "ĠE",
        "nt"
      ],
      [
        "pa",
        "Ã§Ã£o"
      ],
      [
        "ĠF",
        "OR"
      ],
      [
        "Ġper",
        "ÃŃo"
      ],
      [
        "Ġsegun",
        "das"
      ],
      [
        "ce",
        "p"
      ],
      [
        "ĠN",
        "a"
      ],
      [
        "Ġr",
        "Ã¡"
      ],
      [
        "Ġdiminu",
        "ÃŃ"
      ],
      [
        "Ġdiminu",
        "to"
      ],
      [
        "pe",
        "to"
      ],
      [
        "vel",
        "mente"
      ],
      [
        "Ġharm",
        "Ã³nica"
      ],
      [
        "Ġfo",
        "ram"
      ],
      [
        "inco",
        "paÃ§Ã£o"
      ],
      [
        "lh",
        "e"
      ],
      [
        "Ġpos",
        "iÃ§Ã£o"
      ],
      [
        "sem",
        "it"
      ],
      [
        "Ġcas",
        "o"
      ],
      [
        "Ġterc",
        "eiro"
      ],
      [
        "pr",
        "imei"
      ],
      [
        "Ġinver",
        "sÃ£o"
      ],
      [
        "Ġsemicolch",
        "eias"
      ],
      [
        "Ġbas",
        "e"
      ],
      [
        "Ġrela",
        "tiva"
      ],
      [
        "Ġdup",
        "la"
      ],
      [
        "cid",
        "ental"
      ],
      [
        "Ġpul",
        "sa"
      ],
      [
        "Ġalgu",
        "ns"
      ],
      [
        "Ġta",
        "be"
      ],
      [
        "Ġcois",
        "as"
      ],
      [
        "interval",
        "o"
      ],
      [
        "Ġpens",
        "ar"
      ],
      [
        "Ġsepara",
        "das"
      ],
      [
        "Ġmant",
        "er"
      ],
      [
        "ĠMa",
        "ior"
      ],
      [
        "quiv",
        "al"
      ],
      [
        "ĠACOR",
        "DES"
      ],
      [
        "E",
        "M"
      ],
      [
        "R",
        "epare"
      ],
      [
        "c",
        "idade"
      ],
      [
        "g",
        "a"
      ],
      [
        "j",
        "unt"
      ],
      [
        "m",
        "usical"
      ],
      [
        "n",
        "e"
      ],
      [
        "o",
        "lo"
      ],
      [
        "p",
        "on"
      ],
      [
        "s",
        "t"
      ],
      [
        "u",
        "ntar"
      ],
      [
        "Ġ",
        "J"
      ],
      [
        "Ġ",
        "loca"
      ],
      [
        "Ġ",
        "ilus"
      ],
      [
        "Ġd",
        "ia"
      ],
      [
        "Ġa",
        "ÃŃ"
      ],
      [
        "Ġe",
        "quival"
      ],
      [
        "ra",
        "da"
      ],
      [
        "Ġs",
        "ons"
      ],
      [
        "Ġn",
        "ecess"
      ],
      [
        "or",
        "ma"
      ],
      [
        "Ã©",
        "s"
      ],
      [
        "ent",
        "emente"
      ],
      [
        "in",
        "a"
      ],
      [
        "in",
        "ua"
      ],
      [
        "en",
        "de"
      ],
      [
        "Ġes",
        "tr"
      ],
      [
        "ĠmÃºs",
        "ico"
      ],
      [
        "cor",
        "de"
      ],
      [
        "ci",
        "p"
      ],
      [
        "Ġca",
        "r"
      ],
      [
        "Ġpe",
        "quen"
      ],
      [
        "ĠM",
        "E"
      ],
      [
        "iv",
        "o"
      ],
      [
        "Ġser",
        "Ã£o"
      ],
      [
        "Ġcont",
        "orno"
      ],
      [
        "ĠC",
        "omo"
      ],
      [
        "ĠE",
        "xistem"
      ],
      [
        "Ġpar",
        "ece"
      ],
      [
        "ĠO",
        "u"
      ],
      [
        "Ġmostra",
        "do"
      ],
      [
        "Ġper",
        "mit"
      ],
      [
        "Ġso",
        "be"
      ],
      [
        "Ġgra",
        "nde"
      ],
      [
        "Ġutiliz",
        "ando"
      ],
      [
        "Ġutiliz",
        "ados"
      ],
      [
        "Ġdura",
        "nte"
      ],
      [
        "Ġch",
        "e"
      ],
      [
        "Ġor",
        "ig"
      ],
      [
        "Ġle",
        "tra"
      ],
      [
        "Ġoita",
        "vas"
      ],
      [
        "As",
        "sim"
      ],
      [
        "Ġouv",
        "ir"
      ],
      [
        "aix",
        "o"
      ],
      [
        "Ġpadr",
        "Ãµes"
      ],
      [
        "du",
        "almente"
      ],
      [
        "pres",
        "sÃ£o"
      ],
      [
        "Ġant",
        "es"
      ],
      [
        "Ġdivid",
        "ir"
      ],
      [
        "Ã¡ri",
        "o"
      ],
      [
        "Ġdup",
        "lo"
      ],
      [
        "Ġpartit",
        "uras"
      ],
      [
        "Ġverd",
        "ade"
      ],
      [
        "Ġalgum",
        "as"
      ],
      [
        "Ġconstru",
        "Ã§Ã£o"
      ],
      [
        "Ġlo",
        "n"
      ],
      [
        "ĠunÃŃsson",
        "o"
      ],
      [
        "ĠclÃ¡ss",
        "ica"
      ],
      [
        "Ġautent",
        "ica"
      ],
      [
        "ĠmetrÃ³n",
        "omo"
      ],
      [
        "Ġpontu",
        "ada"
      ],
      [
        "pit",
        "ulo"
      ],
      [
        "susten",
        "ido"
      ],
      [
        "Ġacont",
        "ece"
      ],
      [
        "ĠEnt",
        "ender"
      ],
      [
        "ĠrÃ¡",
        "p"
      ],
      [
        "Ġestr",
        "ut"
      ],
      [
        "P",
        "o"
      ],
      [
        "T",
        "o"
      ],
      [
        "a",
        "p"
      ],
      [
        "c",
        "to"
      ],
      [
        "h",
        "e"
      ],
      [
        "i",
        "Ãªncia"
      ],
      [
        "l",
        "ÃŃn"
      ],
      [
        "n",
        "d"
      ],
      [
        "p",
        "ri"
      ],
      [
        "r",
        "u"
      ],
      [
        "Ġ",
        "ult"
      ],
      [
        "as",
        "e"
      ],
      [
        "Ġa",
        "gu"
      ],
      [
        "Ġa",
        "gora"
      ],
      [
        "Ġe",
        "nc"
      ],
      [
        "Ġe",
        "les"
      ],
      [
        "Ġp",
        "la"
      ],
      [
        "Ġde",
        "c"
      ],
      [
        "Ġde",
        "fin"
      ],
      [
        "qu",
        "Ãª"
      ],
      [
        "qu",
        "atro"
      ],
      [
        "em",
        "it"
      ],
      [
        "es",
        "t"
      ],
      [
        "es",
        "ta"
      ],
      [
        "Ġo",
        "b"
      ],
      [
        "ar",
        "Ã¡"
      ],
      [
        "ica",
        "mente"
      ],
      [
        "ta",
        "ncia"
      ],
      [
        "Ġf",
        "la"
      ],
      [
        "en",
        "Ã§Ã£o"
      ],
      [
        "en",
        "sÃ£o"
      ],
      [
        "en",
        "cia"
      ],
      [
        "ÃŃ",
        "amos"
      ],
      [
        "Ġas",
        "s"
      ],
      [
        "Ġas",
        "peto"
      ],
      [
        "Ġc",
        "ria"
      ],
      [
        "Ġc",
        "laro"
      ],
      [
        "Ġpara",
        "r"
      ],
      [
        "lo",
        "cidade"
      ],
      [
        "at",
        "o"
      ],
      [
        "ma",
        "ior"
      ],
      [
        "Ġv",
        "ai"
      ],
      [
        "Ġv",
        "aria"
      ],
      [
        "Ġv",
        "ocÃª"
      ],
      [
        "enor",
        "es"
      ],
      [
        "ĠI",
        "N"
      ],
      [
        "Ġpo",
        "demos"
      ],
      [
        "Ġin",
        "dica"
      ],
      [
        "ĠT",
        "Ã³nica"
      ],
      [
        "Ġcont",
        "agem"
      ],
      [
        "Ġcon",
        "f"
      ],
      [
        "Ġcon",
        "junt"
      ],
      [
        "res",
        "c"
      ],
      [
        "Ġal",
        "te"
      ],
      [
        "Ġmu",
        "itos"
      ],
      [
        "ĠP",
        "o"
      ],
      [
        "Ġmo",
        "v"
      ],
      [
        "âĢĿ",
        ","
      ],
      [
        "Ġperf",
        "eito"
      ],
      [
        "Ġdis",
        "c"
      ],
      [
        "Ġdis",
        "tancia"
      ],
      [
        "ĠmelÃ³",
        "d"
      ],
      [
        "Ġalg",
        "uma"
      ],
      [
        "Ġinver",
        "t"
      ],
      [
        "Ġvi",
        "bra"
      ],
      [
        "Ġab",
        "aixo"
      ],
      [
        "Ġpartit",
        "ura"
      ],
      [
        "Ġped",
        "al"
      ],
      [
        "Ġacid",
        "ente"
      ],
      [
        "ĠharmÃ³n",
        "ico"
      ],
      [
        "pend",
        "endo"
      ],
      [
        "Ġformu",
        "la"
      ],
      [
        "Ġtabe",
        "la"
      ],
      [
        "Ġestrut",
        "ura"
      ],
      [
        "lÃŃn",
        "io"
      ],
      [
        ".",
        "."
      ],
      [
        "A",
        "LO"
      ],
      [
        "C",
        "ont"
      ],
      [
        "F",
        "Ã¡"
      ],
      [
        "I",
        "V"
      ],
      [
        "O",
        "u"
      ],
      [
        "R",
        "V"
      ],
      [
        "c",
        "ulas"
      ],
      [
        "d",
        "iv"
      ],
      [
        "e",
        "l"
      ],
      [
        "f",
        "e"
      ],
      [
        "g",
        "io"
      ],
      [
        "i",
        "x"
      ],
      [
        "i",
        "lo"
      ],
      [
        "j",
        "e"
      ],
      [
        "n",
        "das"
      ],
      [
        "t",
        "emos"
      ],
      [
        "t",
        "empo"
      ],
      [
        "u",
        "almente"
      ],
      [
        "v",
        "Ã©s"
      ],
      [
        "Ġa",
        "m"
      ],
      [
        "Ġa",
        "tra"
      ],
      [
        "Ġa",
        "ber"
      ],
      [
        "Ġa",
        "diante"
      ],
      [
        "Ġm",
        "ei"
      ],
      [
        "Ġs",
        "Ã©"
      ],
      [
        "Ġs",
        "im"
      ],
      [
        "Ġn",
        "ada"
      ],
      [
        "Ġt",
        "iver"
      ],
      [
        "or",
        "iz"
      ],
      [
        "es",
        "se"
      ],
      [
        "Ġqu",
        "ase"
      ],
      [
        "ent",
        "a"
      ],
      [
        "is",
        "so"
      ],
      [
        "in",
        "as"
      ],
      [
        "Ġf",
        "ec"
      ],
      [
        "en",
        "so"
      ],
      [
        "re",
        "gular"
      ],
      [
        "Ġpa",
        "utas"
      ],
      [
        "ÃŃ",
        "mb"
      ],
      [
        "Ġse",
        "us"
      ],
      [
        "ve",
        "z"
      ],
      [
        "Ġc",
        "la"
      ],
      [
        "int",
        "a"
      ],
      [
        "Ġl",
        "ado"
      ],
      [
        "ĠS",
        "Ã©timas"
      ],
      [
        "tr",
        "Ãªs"
      ],
      [
        "Ġca",
        "be"
      ],
      [
        "Ġca",
        "pitulo"
      ],
      [
        "ĠM",
        "as"
      ],
      [
        "usica",
        "is"
      ],
      [
        "ĠT",
        "orn"
      ],
      [
        "Ġcont",
        "inua"
      ],
      [
        "Ġex",
        "istem"
      ],
      [
        "Ġsegu",
        "intes"
      ],
      [
        "Ġcon",
        "hecer"
      ],
      [
        "ĠC",
        "A"
      ],
      [
        "Ġnum",
        "ero"
      ],
      [
        "Ã©t",
        "ima"
      ],
      [
        "Ġh",
        "o"
      ],
      [
        "nc",
        "e"
      ],
      [
        "nc",
        "as"
      ],
      [
        "Ġme",
        "lh"
      ],
      [
        "Ġdes",
        "ta"
      ],
      [
        "ĠP",
        "er"
      ],
      [
        "ul",
        "ta"
      ],
      [
        "Ġso",
        "am"
      ],
      [
        "ifica",
        "r"
      ],
      [
        "TE",
        "RV"
      ],
      [
        "ĠV",
        "I"
      ],
      [
        "Ġfaz",
        "em"
      ],
      [
        "Ġfaz",
        "endo"
      ],
      [
        "Ġarmad",
        "uras"
      ],
      [
        "Ġor",
        "ganiz"
      ],
      [
        "Ġle",
        "itor"
      ],
      [
        "ĠespaÃ§",
        "o"
      ],
      [
        "lÃ³",
        "gio"
      ],
      [
        "Ġun",
        "iÃ£o"
      ],
      [
        "ĠEs",
        "tas"
      ],
      [
        "ĠÃº",
        "lt"
      ],
      [
        "Ġencont",
        "ra"
      ],
      [
        "Ġant",
        "ig"
      ],
      [
        "con",
        "hecer"
      ],
      [
        "Ġespec",
        "ifica"
      ],
      [
        "Ġbra",
        "ncas"
      ],
      [
        "Ġacab",
        "a"
      ],
      [
        "Ġar",
        "co"
      ],
      [
        "Ġid",
        "eia"
      ],
      [
        "enci",
        "almente"
      ],
      [
        "Ġalgu",
        "Ã©m"
      ],
      [
        "Ġverd",
        "ad"
      ],
      [
        "ĠQu",
        "intas"
      ],
      [
        "Ġdev",
        "emos"
      ],
      [
        "Ġapr",
        "ender"
      ],
      [
        "Ġescr",
        "itas"
      ],
      [
        "ques",
        "tra"
      ],
      [
        "Ġcomple",
        "tamente"
      ],
      [
        "Ġdesenh",
        "o"
      ],
      [
        "Ġimprovis",
        "ar"
      ],
      [
        "Ġprin",
        "cip"
      ],
      [
        "Ġche",
        "gar"
      ],
      [
        "ĠIN",
        "TERV"
      ],
      [
        "ALO",
        "S"
      ],
      [
        "Ġmei",
        "o"
      ],
      [
        "Ġfec",
        "h"
      ],
      [
        "ĠINTERV",
        "ALOS"
      ],
      [
        "D",
        "IA"
      ],
      [
        "E",
        "xistem"
      ],
      [
        "M",
        "ontar"
      ],
      [
        "N",
        "a"
      ],
      [
        "O",
        "NT"
      ],
      [
        "T",
        "T"
      ],
      [
        "a",
        "corde"
      ],
      [
        "b",
        "r"
      ],
      [
        "b",
        "la"
      ],
      [
        "c",
        "lave"
      ],
      [
        "i",
        "b"
      ],
      [
        "i",
        "p"
      ],
      [
        "i",
        "ar"
      ],
      [
        "l",
        "ter"
      ],
      [
        "n",
        "ca"
      ],
      [
        "n",
        "eira"
      ],
      [
        "o",
        "a"
      ],
      [
        "s",
        "ignifica"
      ],
      [
        "u",
        "al"
      ],
      [
        "Ġ",
        "Ã³"
      ],
      [
        "Ġa",
        "qui"
      ],
      [
        "Ġa",
        "ulas"
      ],
      [
        "nt",
        "erval"
      ],
      [
        "Ġm",
        "ÃŃnimas"
      ],
      [
        "Ġm",
        "enos"
      ],
      [
        "Ġp",
        "ia"
      ],
      [
        "ra",
        "tica"
      ],
      [
        "Ġs",
        "al"
      ],
      [
        "Ġs",
        "us"
      ],
      [
        "ca",
        "la"
      ],
      [
        "os",
        "se"
      ],
      [
        "Ġde",
        "pendendo"
      ],
      [
        "Ġt",
        "ant"
      ],
      [
        "Ġt",
        "Ã©c"
      ],
      [
        "or",
        "us"
      ],
      [
        "Ġo",
        "corr"
      ],
      [
        "Ġo",
        "cidental"
      ],
      [
        "ent",
        "os"
      ],
      [
        "is",
        "tura"
      ],
      [
        "ta",
        "que"
      ],
      [
        "Ġf",
        "e"
      ],
      [
        "Ġf",
        "usa"
      ],
      [
        "re",
        "ver"
      ],
      [
        "it",
        "u"
      ],
      [
        "Ã³",
        "s"
      ],
      [
        "Ã³",
        "ri"
      ],
      [
        "Ġb",
        "at"
      ],
      [
        "ÃŃ",
        "ci"
      ],
      [
        "Ġc",
        "ur"
      ],
      [
        "âĢ",
        "Ļ"
      ],
      [
        "ec",
        "em"
      ],
      [
        "ĠA",
        "cordes"
      ],
      [
        "Ġv",
        "amos"
      ],
      [
        "Ġto",
        "po"
      ],
      [
        "ĠM",
        "ONT"
      ],
      [
        "Ġre",
        "lÃ³gio"
      ],
      [
        "Ġex",
        "ec"
      ],
      [
        "Ġpr",
        "ime"
      ],
      [
        "Ġsegu",
        "em"
      ],
      [
        "Ġcon",
        "ce"
      ],
      [
        "ver",
        "sa"
      ],
      [
        "Ġal",
        "turas"
      ],
      [
        "Ġme",
        "ia"
      ],
      [
        "ant",
        "es"
      ],
      [
        "Ġdes",
        "a"
      ],
      [
        "Ġdes",
        "de"
      ],
      [
        "ĠP",
        "A"
      ],
      [
        "Ġmo",
        "d"
      ],
      [
        "Ġmo",
        "ve"
      ],
      [
        "Ġmo",
        "ver"
      ],
      [
        "Ġmo",
        "der"
      ],
      [
        "ic",
        "ia"
      ],
      [
        "LO",
        "DIA"
      ],
      [
        "Ġve",
        "locidade"
      ],
      [
        "Ġaument",
        "ar"
      ],
      [
        "be",
        "at"
      ],
      [
        "Ġver",
        "Ã¡"
      ],
      [
        "ist",
        "Ã³ria"
      ],
      [
        "Ġutiliz",
        "ado"
      ],
      [
        "Ġpart",
        "ida"
      ],
      [
        "Ġj",
        "untar"
      ],
      [
        "arm",
        "Ã³n"
      ],
      [
        "Ġnatura",
        "is"
      ],
      [
        "me",
        "tade"
      ],
      [
        "Ġcompos",
        "tas"
      ],
      [
        "Ġpre",
        "ta"
      ],
      [
        "Ã³rmu",
        "las"
      ],
      [
        "Ġpont",
        "os"
      ],
      [
        "Ġouv",
        "intes"
      ],
      [
        "Ġadicion",
        "amos"
      ],
      [
        "Ġnos",
        "sa"
      ],
      [
        "ĠnÃºm",
        "eros"
      ],
      [
        "era",
        "l"
      ],
      [
        "Ġant",
        "erior"
      ],
      [
        "Ġesta",
        "mos"
      ],
      [
        "sem",
        "ibreve"
      ],
      [
        "Ġcas",
        "a"
      ],
      [
        "Ġcas",
        "as"
      ],
      [
        "Ġapar",
        "ecer"
      ],
      [
        "Ġapar",
        "ece"
      ],
      [
        "Ġcor",
        "das"
      ],
      [
        "Ġdivid",
        "ida"
      ],
      [
        "Ġdiz",
        "er"
      ],
      [
        "pr",
        "ender"
      ],
      [
        "Ġcoloca",
        "r"
      ],
      [
        "Ġprecis",
        "a"
      ],
      [
        "Ġvi",
        "ol"
      ],
      [
        "Es",
        "te"
      ],
      [
        "Ġpul",
        "so"
      ],
      [
        "ud",
        "iÃªncia"
      ],
      [
        "Ġdetermin",
        "a"
      ],
      [
        "Ġpop",
        "ular"
      ],
      [
        "for",
        "ma"
      ],
      [
        "Ġapr",
        "ende"
      ],
      [
        "Ġfa",
        "cto"
      ],
      [
        "Ġjunt",
        "as"
      ],
      [
        "Ġigu",
        "al"
      ],
      [
        "Ġigu",
        "ais"
      ],
      [
        "Ġsex",
        "to"
      ],
      [
        "ĠCont",
        "udo"
      ],
      [
        "Ġbande",
        "ira"
      ],
      [
        "Ġbande",
        "iras"
      ],
      [
        "batid",
        "as"
      ],
      [
        "Ġima",
        "gem"
      ],
      [
        "Ġaj",
        "uda"
      ],
      [
        "ĠMUSICA",
        "IS"
      ],
      [
        "erc",
        "ÃŃci"
      ],
      [
        "tam",
        "bÃ©m"
      ],
      [
        "ĠFOR",
        "MA"
      ],
      [
        "Ġpequen",
        "o"
      ],
      [
        "ĠME",
        "LODIA"
      ],
      [
        "Ġpla",
        "g"
      ],
      [
        "Ġdisc",
        "ut"
      ],
      [
        "Ġatra",
        "vÃ©s"
      ],
      [
        "Ġcla",
        "ves"
      ],
      [
        "Ġcabe",
        "Ã§a"
      ],
      [
        "Ġmelh",
        "or"
      ],
      [
        "nterval",
        "os"
      ],
      [
        "ratica",
        "r"
      ],
      [
        "ĠtÃ©c",
        "n"
      ],
      [
        "ĠMONT",
        "AR"
      ],
      [
        "1",
        "7"
      ],
      [
        "C",
        "om"
      ],
      [
        "F",
        "Ã³rmulas"
      ],
      [
        "N",
        "A"
      ],
      [
        "U",
        "R"
      ],
      [
        "a",
        "c"
      ],
      [
        "a",
        "cordes"
      ],
      [
        "d",
        "or"
      ],
      [
        "d",
        "ar"
      ],
      [
        "d",
        "is"
      ],
      [
        "e",
        "g"
      ],
      [
        "h",
        "o"
      ],
      [
        "r",
        "g"
      ],
      [
        "r",
        "Ã©"
      ],
      [
        "r",
        "up"
      ],
      [
        "t",
        "os"
      ],
      [
        "t",
        "iliz"
      ],
      [
        "t",
        "Ã³nica"
      ],
      [
        "v",
        "i"
      ],
      [
        "v",
        "emente"
      ],
      [
        "Ġe",
        "las"
      ],
      [
        "Ġm",
        "em"
      ],
      [
        "Ġm",
        "ente"
      ],
      [
        "Ġs",
        "incopaÃ§Ã£o"
      ],
      [
        "ca",
        "da"
      ],
      [
        "Ġt",
        "re"
      ],
      [
        "Ġt",
        "al"
      ],
      [
        "Ġt",
        "inh"
      ],
      [
        "Ġt",
        "ensÃ£o"
      ],
      [
        "es",
        "c"
      ],
      [
        "es",
        "calas"
      ],
      [
        "Ġo",
        "lh"
      ],
      [
        "Ġum",
        "as"
      ],
      [
        "ad",
        "ura"
      ],
      [
        "ad",
        "Ãªncia"
      ],
      [
        "Ã©",
        "n"
      ],
      [
        "in",
        "gu"
      ],
      [
        "Ġno",
        "va"
      ],
      [
        "Ġno",
        "mes"
      ],
      [
        "Ġf",
        "eita"
      ],
      [
        "Ġf",
        "usas"
      ],
      [
        "Ġf",
        "osse"
      ],
      [
        "en",
        "vol"
      ],
      [
        "Ġes",
        "co"
      ],
      [
        "Ã¡",
        "mos"
      ],
      [
        "Ã¡",
        "ria"
      ],
      [
        "Ã¡",
        "lter"
      ],
      [
        "it",
        "ura"
      ],
      [
        "Ġb",
        "oa"
      ],
      [
        "Ġma",
        "neira"
      ],
      [
        "do",
        "minante"
      ],
      [
        "Ġse",
        "te"
      ],
      [
        "Ãºs",
        "culas"
      ],
      [
        "Ġpara",
        "gem"
      ],
      [
        "am",
        "il"
      ],
      [
        "ĠA",
        "AB"
      ],
      [
        "ma",
        "is"
      ],
      [
        "Ġv",
        "o"
      ],
      [
        "Ġto",
        "do"
      ],
      [
        "an",
        "h"
      ],
      [
        "ĠD",
        "e"
      ],
      [
        "ĠD",
        "o"
      ],
      [
        "ĠS",
        "emit"
      ],
      [
        "Ġca",
        "usa"
      ],
      [
        "Ġin",
        "icia"
      ],
      [
        "Ġpor",
        "quÃª"
      ],
      [
        "Ġpe",
        "da"
      ],
      [
        "Ġpe",
        "las"
      ],
      [
        "ĠM",
        "e"
      ],
      [
        "ĠM",
        "o"
      ],
      [
        "iv",
        "a"
      ],
      [
        "Ġcont",
        "r"
      ],
      [
        "Ġex",
        "per"
      ],
      [
        "Ġex",
        "ercÃŃci"
      ],
      [
        "Ġsegu",
        "e"
      ],
      [
        "Ġsegu",
        "ida"
      ],
      [
        "Ġint",
        "er"
      ],
      [
        "ĠC",
        "lave"
      ],
      [
        "ĠE",
        "m"
      ],
      [
        "Ġpar",
        "ecer"
      ],
      [
        "ua",
        "Ã§Ãµes"
      ],
      [
        "Ġh",
        "a"
      ],
      [
        "Ġh",
        "aste"
      ],
      [
        "Ġh",
        "istÃ³ria"
      ],
      [
        "ten",
        "Ã§Ã£o"
      ],
      [
        "ĠP",
        "a"
      ],
      [
        "Ġap",
        "to"
      ],
      [
        "Ġquint",
        "o"
      ],
      [
        "Ġsua",
        "vemente"
      ],
      [
        "Ġgra",
        "dualmente"
      ],
      [
        "Ġutiliz",
        "ar"
      ],
      [
        "Ġ3",
        "2"
      ],
      [
        "va",
        "velmente"
      ],
      [
        "Ġor",
        "questra"
      ],
      [
        "Ġcompos",
        "to"
      ],
      [
        "Ġpre",
        "tas"
      ],
      [
        "Ġperf",
        "eitas"
      ],
      [
        "Ġouv",
        "inte"
      ],
      [
        "ĠprÃ³x",
        "imo"
      ],
      [
        "Ġadicion",
        "ar"
      ],
      [
        "ĠEs",
        "ta"
      ],
      [
        "eira",
        "mente"
      ],
      [
        "tiv",
        "o"
      ],
      [
        "Ġres",
        "to"
      ],
      [
        "Ġmar",
        "ca"
      ],
      [
        "Ġbra",
        "nca"
      ],
      [
        "Ġterc",
        "eira"
      ],
      [
        "Ġacab",
        "ar"
      ],
      [
        "Ġsent",
        "ido"
      ],
      [
        "Ġsent",
        "imento"
      ],
      [
        "Ġlig",
        "adas"
      ],
      [
        "Ġposs",
        "ÃŃvel"
      ],
      [
        "ud",
        "ar"
      ],
      [
        "Ġta",
        "bla"
      ],
      [
        "ĠbÃ¡s",
        "ica"
      ],
      [
        "ĠbÃ¡s",
        "ico"
      ],
      [
        "Ġped",
        "ir"
      ],
      [
        "Ġcontinu",
        "ar"
      ],
      [
        "Ġpalav",
        "ra"
      ],
      [
        "Ġescr",
        "ito"
      ],
      [
        "Ġacid",
        "entes"
      ],
      [
        "No",
        "tas"
      ],
      [
        "Ġfun",
        "ci"
      ],
      [
        "bem",
        "ol"
      ],
      [
        "ĠdinÃ¢m",
        "ica"
      ],
      [
        "ĠdinÃ¢m",
        "icas"
      ],
      [
        "instrument",
        "o"
      ],
      [
        "Ġconsegu",
        "ir"
      ],
      [
        "Ġnes",
        "sa"
      ],
      [
        "Ġfrequ",
        "Ãªncia"
      ],
      [
        "ĠTrÃŃ",
        "ade"
      ],
      [
        "ĠperÃŃo",
        "do"
      ],
      [
        "semit",
        "ons"
      ],
      [
        "Ġpulsa",
        "Ã§Ã£o"
      ],
      [
        "ru",
        "po"
      ],
      [
        "Ġult",
        "imo"
      ],
      [
        "Ġdec",
        "lÃŃnio"
      ],
      [
        "Ġaber",
        "ta"
      ],
      [
        "ÃŃmb",
        "olo"
      ],
      [
        "ĠTorn",
        "ar"
      ],
      [
        "Ġprincip",
        "al"
      ],
      [
        "Ġtant",
        "as"
      ],
      [
        "Ġexec",
        "uta"
      ],
      [
        "rÃ©",
        "cia"
      ],
      [
        "Ã¡lter",
        "as"
      ],
      [
        "amil",
        "iar"
      ],
      [
        ".",
        ","
      ],
      [
        "1",
        "8"
      ],
      [
        "2",
        "0"
      ],
      [
        "2",
        "2"
      ],
      [
        "C",
        "ada"
      ],
      [
        "E",
        "x"
      ],
      [
        "F",
        "orma"
      ],
      [
        "H",
        "Ã¡"
      ],
      [
        "I",
        "sto"
      ],
      [
        "I",
        "NA"
      ],
      [
        "O",
        "S"
      ],
      [
        "P",
        "a"
      ],
      [
        "S",
        "Ã©timas"
      ],
      [
        "T",
        "Ã³nica"
      ],
      [
        "T",
        "rÃŃ"
      ],
      [
        "a",
        "o"
      ],
      [
        "a",
        "ument"
      ],
      [
        "a",
        "be"
      ],
      [
        "b",
        "ro"
      ],
      [
        "d",
        "ida"
      ],
      [
        "e",
        "la"
      ],
      [
        "f",
        "igura"
      ],
      [
        "f",
        "eito"
      ],
      [
        "g",
        "in"
      ],
      [
        "i",
        "u"
      ],
      [
        "i",
        "Ã§Ãµes"
      ],
      [
        "j",
        "am"
      ],
      [
        "m",
        "ostra"
      ],
      [
        "p",
        "lica"
      ],
      [
        "r",
        "imei"
      ],
      [
        "s",
        "imples"
      ],
      [
        "t",
        "adas"
      ],
      [
        "u",
        "ro"
      ],
      [
        "u",
        "adas"
      ],
      [
        "u",
        "itas"
      ],
      [
        "v",
        "ent"
      ],
      [
        "v",
        "am"
      ],
      [
        "Ġ",
        "X"
      ],
      [
        "Ġd",
        "ist"
      ],
      [
        "Ġa",
        "f"
      ],
      [
        "Ġa",
        "g"
      ],
      [
        "Ġa",
        "taque"
      ],
      [
        "Ġa",
        "udiÃªncia"
      ],
      [
        "Ġm",
        "Ã£o"
      ],
      [
        "Ġm",
        "in"
      ],
      [
        "Ġp",
        "assos"
      ],
      [
        "Ġp",
        "raticar"
      ],
      [
        "Ġs",
        "u"
      ],
      [
        "Ġs",
        "ona"
      ],
      [
        "Ġn",
        "em"
      ],
      [
        "Ġn",
        "este"
      ],
      [
        "Ġn",
        "ÃŃvel"
      ],
      [
        "ca",
        "ix"
      ],
      [
        "os",
        "to"
      ],
      [
        "er",
        "em"
      ],
      [
        "Ġde",
        "z"
      ],
      [
        "um",
        "an"
      ],
      [
        "es",
        "cala"
      ],
      [
        "Ġo",
        "nda"
      ],
      [
        "ad",
        "icion"
      ],
      [
        "Ã©",
        "tr"
      ],
      [
        "im",
        "bre"
      ],
      [
        "Ġcom",
        "b"
      ],
      [
        "in",
        "g"
      ],
      [
        "id",
        "amente"
      ],
      [
        "re",
        "g"
      ],
      [
        "Ġes",
        "sa"
      ],
      [
        "al",
        "quer"
      ],
      [
        "it",
        "mos"
      ],
      [
        "ia",
        "m"
      ],
      [
        "Ġma",
        "i"
      ],
      [
        "do",
        "is"
      ],
      [
        "ÃŃ",
        "p"
      ],
      [
        "Ġc",
        "ul"
      ],
      [
        "igu",
        "ras"
      ],
      [
        "Ġdo",
        "minante"
      ],
      [
        "on",
        "ias"
      ],
      [
        "Ġl",
        "Ã¡"
      ],
      [
        "ĠA",
        "l"
      ],
      [
        "Ġv",
        "ar"
      ],
      [
        "Ġv",
        "ir"
      ],
      [
        "Ġto",
        "tal"
      ],
      [
        "ĠS",
        "ub"
      ],
      [
        "Ġcomp",
        "lica"
      ],
      [
        "Ġpo",
        "nte"
      ],
      [
        "Ġpe",
        "gar"
      ],
      [
        "Ġpe",
        "los"
      ],
      [
        "Ġfor",
        "Ã§a"
      ],
      [
        "ĠT",
        "eor"
      ],
      [
        "ĠT",
        "empo"
      ],
      [
        "Ġre",
        "almente"
      ],
      [
        "Ġre",
        "ce"
      ],
      [
        "Ġcont",
        "a"
      ],
      [
        "Ġcont",
        "e"
      ],
      [
        "Ġex",
        "ist"
      ],
      [
        "il",
        "ar"
      ],
      [
        "ĠC",
        "adÃªncia"
      ],
      [
        "ĠE",
        "uro"
      ],
      [
        "res",
        "pon"
      ],
      [
        "ig",
        "amos"
      ],
      [
        "no",
        "tas"
      ],
      [
        "Ġest",
        "es"
      ],
      [
        "Ġest",
        "ilo"
      ],
      [
        "Ġh",
        "uman"
      ],
      [
        "Ġal",
        "to"
      ],
      [
        "Ġal",
        "go"
      ],
      [
        "ĠU",
        "tiliz"
      ],
      [
        "Ġg",
        "rupo"
      ],
      [
        "Ġdes",
        "tas"
      ],
      [
        "sim",
        "o"
      ],
      [
        "Ġso",
        "ar"
      ],
      [
        "be",
        "l"
      ],
      [
        "Ġver",
        "so"
      ],
      [
        "Ġgra",
        "ves"
      ],
      [
        "ce",
        "is"
      ],
      [
        "ĠN",
        "Ã£o"
      ],
      [
        "Ġutiliz",
        "ada"
      ],
      [
        "Ġdiminu",
        "tas"
      ],
      [
        "Ġexemp",
        "los"
      ],
      [
        "Ġj",
        "azz"
      ],
      [
        "Ġir",
        "regular"
      ],
      [
        "ĠprÃ³",
        "pri"
      ],
      [
        "ou",
        "ver"
      ],
      [
        "Ġoita",
        "vo"
      ],
      [
        "Ġescre",
        "ve"
      ],
      [
        "Ġnos",
        "so"
      ],
      [
        "Ġdiv",
        "is"
      ],
      [
        "Se",
        "gu"
      ],
      [
        "Ġteor",
        "istas"
      ],
      [
        "ĠcomeÃ§",
        "amos"
      ],
      [
        "Ã¢",
        "ncia"
      ],
      [
        "OR",
        "ES"
      ],
      [
        "Ġres",
        "ulta"
      ],
      [
        "con",
        "hec"
      ],
      [
        "Ġesta",
        "bel"
      ],
      [
        "Ġbaix",
        "a"
      ],
      [
        "comp",
        "anh"
      ],
      [
        "Ġtra",
        "ns"
      ],
      [
        "Ġapar",
        "Ãªncia"
      ],
      [
        "Ġapar",
        "ecem"
      ],
      [
        "ÃŃs",
        "simo"
      ],
      [
        "Ġpal",
        "mas"
      ],
      [
        "Ġterc",
        "inas"
      ],
      [
        "end",
        "ente"
      ],
      [
        "ĠG",
        "rÃ©cia"
      ],
      [
        "aria",
        "mente"
      ],
      [
        "Ġreg",
        "ra"
      ],
      [
        "ĠfÃ¡",
        "ceis"
      ],
      [
        "Ġfal",
        "ar"
      ],
      [
        "Ġra",
        "iz"
      ],
      [
        "duz",
        "ir"
      ],
      [
        "Ġid",
        "ent"
      ],
      [
        "Ġposs",
        "ÃŃveis"
      ],
      [
        "Ġcontinu",
        "am"
      ],
      [
        "Ġamb",
        "os"
      ],
      [
        "Ġlo",
        "go"
      ],
      [
        "Ġcois",
        "a"
      ],
      [
        "interval",
        "os"
      ],
      [
        "Ġrepresent",
        "a"
      ],
      [
        "Ġrepresent",
        "am"
      ],
      [
        "Ġfa",
        "cil"
      ],
      [
        "ador",
        "es"
      ],
      [
        "batid",
        "a"
      ],
      [
        "Ġima",
        "gin"
      ],
      [
        "ime",
        "dia"
      ],
      [
        "instrument",
        "os"
      ],
      [
        "Ġess",
        "as"
      ],
      [
        "Ġinv",
        "enÃ§Ã£o"
      ],
      [
        "Ġconhec",
        "imento"
      ],
      [
        "Ġinclu",
        "indo"
      ],
      [
        "ĠMUSICA",
        "L"
      ],
      [
        "fici",
        "al"
      ],
      [
        "ilh",
        "ar"
      ],
      [
        "cep",
        "to"
      ],
      [
        "ĠdiminuÃŃ",
        "da"
      ],
      [
        "primei",
        "ra"
      ],
      [
        "primei",
        "ro"
      ],
      [
        "Ġnecess",
        "ariamente"
      ],
      [
        "Ġvaria",
        "Ã§Ã£o"
      ],
      [
        "Ġconjunt",
        "o"
      ],
      [
        "Ġalte",
        "ra"
      ],
      [
        "Cont",
        "udo"
      ],
      [
        "div",
        "id"
      ],
      [
        "Ġho",
        "je"
      ],
      [
        "ĠÃºlt",
        "ima"
      ],
      [
        "Ġantig",
        "a"
      ],
      [
        "Ġfech",
        "ada"
      ],
      [
        "ĠÃ³",
        "rg"
      ],
      [
        "istura",
        "r"
      ],
      [
        "Ġmem",
        "oriz"
      ],
      [
        "Ġtinh",
        "am"
      ],
      [
        "Ġcontr",
        "Ã¡rio"
      ],
      [
        "Ġinter",
        "pre"
      ],
      [
        "Ġtabla",
        "turas"
      ],
      [
        "Ġexecuta",
        "nte"
      ],
      [
        "vent",
        "ualmente"
      ],
      [
        "1",
        "9"
      ],
      [
        "2",
        "4"
      ],
      [
        "2",
        "6"
      ],
      [
        "3",
        "8"
      ],
      [
        "A",
        "V"
      ],
      [
        "A",
        "qui"
      ],
      [
        "A",
        "tenÃ§Ã£o"
      ],
      [
        "B",
        "lues"
      ],
      [
        "C",
        "ULO"
      ],
      [
        "D",
        "UR"
      ],
      [
        "H",
        "z"
      ],
      [
        "I",
        "R"
      ],
      [
        "I",
        "NT"
      ],
      [
        "L",
        "Ã¡"
      ],
      [
        "L",
        "AS"
      ],
      [
        "L",
        "AV"
      ],
      [
        "N",
        "Ã£o"
      ],
      [
        "O",
        "T"
      ],
      [
        "P",
        "ro"
      ],
      [
        "R",
        "MA"
      ],
      [
        "a",
        "ta"
      ],
      [
        "b",
        "emos"
      ],
      [
        "b",
        "arras"
      ],
      [
        "b",
        "lem"
      ],
      [
        "d",
        "iminu"
      ],
      [
        "f",
        "r"
      ],
      [
        "f",
        "eita"
      ],
      [
        "g",
        "re"
      ],
      [
        "h",
        "a"
      ],
      [
        "i",
        "par"
      ],
      [
        "m",
        "p"
      ],
      [
        "m",
        "enor"
      ],
      [
        "n",
        "um"
      ],
      [
        "n",
        "Ã§"
      ],
      [
        "n",
        "al"
      ],
      [
        "n",
        "ÃŃsson"
      ],
      [
        "o",
        "ra"
      ],
      [
        "p",
        "iano"
      ],
      [
        "p",
        "ria"
      ],
      [
        "p",
        "enas"
      ],
      [
        "r",
        "os"
      ],
      [
        "s",
        "emos"
      ],
      [
        "s",
        "ion"
      ],
      [
        "t",
        "orn"
      ],
      [
        "u",
        "to"
      ],
      [
        "v",
        "id"
      ],
      [
        "v",
        "ida"
      ],
      [
        "z",
        "a"
      ],
      [
        "Ġ",
        "ig"
      ],
      [
        "Ġ",
        "isso"
      ],
      [
        "Ġ",
        "imedia"
      ],
      [
        "Ġd",
        "ar"
      ],
      [
        "Ġd",
        "Ã¡"
      ],
      [
        "Ġa",
        "do"
      ],
      [
        "Ġa",
        "tr"
      ],
      [
        "Ġa",
        "ch"
      ],
      [
        "Ġe",
        "ram"
      ],
      [
        "Ġp",
        "asso"
      ],
      [
        "Ġs",
        "it"
      ],
      [
        "Ġs",
        "on"
      ],
      [
        "Ġs",
        "ido"
      ],
      [
        "Ġs",
        "ÃŃmbolo"
      ],
      [
        "ca",
        "d"
      ],
      [
        "Ġt",
        "Ã£o"
      ],
      [
        "Ġt",
        "endo"
      ],
      [
        "Ġt",
        "anto"
      ],
      [
        "Ġt",
        "entar"
      ],
      [
        "or",
        "as"
      ],
      [
        "or",
        "te"
      ],
      [
        "qu",
        "ando"
      ],
      [
        "em",
        "o"
      ],
      [
        "em",
        "amente"
      ],
      [
        "ar",
        "ra"
      ],
      [
        "ent",
        "Ã£o"
      ],
      [
        "ent",
        "re"
      ],
      [
        "ent",
        "amente"
      ],
      [
        "ta",
        "ntes"
      ],
      [
        "in",
        "ante"
      ],
      [
        "Ġf",
        "ra"
      ],
      [
        "Ġf",
        "iguras"
      ],
      [
        "en",
        "a"
      ],
      [
        "re",
        "la"
      ],
      [
        "Ġes",
        "se"
      ],
      [
        "Ã¡",
        "g"
      ],
      [
        "al",
        "idade"
      ],
      [
        "Ġb",
        "om"
      ],
      [
        "la",
        "Ã§Ã£o"
      ],
      [
        "ÃŃ",
        "f"
      ],
      [
        "ÃŃ",
        "r"
      ],
      [
        "Ġse",
        "jam"
      ],
      [
        "âĢ",
        "ľ"
      ],
      [
        "Ġ1",
        "7"
      ],
      [
        "am",
        "ento"
      ],
      [
        "Ġou",
        "ve"
      ],
      [
        "on",
        "entes"
      ],
      [
        "at",
        "is"
      ],
      [
        "at",
        "ura"
      ],
      [
        "ec",
        "ipar"
      ],
      [
        "Ġl",
        "u"
      ],
      [
        "Ġl",
        "em"
      ],
      [
        "Ġl",
        "he"
      ],
      [
        "Ġl",
        "entamente"
      ],
      [
        "ĠA",
        "B"
      ],
      [
        "ĠA",
        "RMA"
      ],
      [
        "Ġv",
        "emos"
      ],
      [
        "Ġto",
        "da"
      ],
      [
        "cor",
        "re"
      ],
      [
        "ĠD",
        "a"
      ],
      [
        "ĠD",
        "uas"
      ],
      [
        "ĠD",
        "iminu"
      ],
      [
        "ĠS",
        "Ã£o"
      ],
      [
        "om",
        "e"
      ],
      [
        "om",
        "os"
      ],
      [
        "tr",
        "u"
      ],
      [
        "tr",
        "emamente"
      ],
      [
        "to",
        "ca"
      ],
      [
        "to",
        "do"
      ],
      [
        "to",
        "car"
      ],
      [
        "Ġtr",
        "u"
      ],
      [
        "Ġtr",
        "aste"
      ],
      [
        "Ġin",
        "s"
      ],
      [
        "iz",
        "ar"
      ],
      [
        "Ġpe",
        "Ã§as"
      ],
      [
        "ĠM",
        "usical"
      ],
      [
        "ĠM",
        "enores"
      ],
      [
        "ĠM",
        "usicais"
      ],
      [
        "ĠT",
        "er"
      ],
      [
        "po",
        "nt"
      ],
      [
        "Ġtoca",
        "m"
      ],
      [
        "Ġtoca",
        "do"
      ],
      [
        "Ġtoca",
        "dos"
      ],
      [
        "Ġcont",
        "udo"
      ],
      [
        "Ġex",
        "pres"
      ],
      [
        "Ġex",
        "pressÃ£o"
      ],
      [
        "Ġex",
        "plica"
      ],
      [
        "Ġex",
        "cepto"
      ],
      [
        "Ġex",
        "tremamente"
      ],
      [
        "Ġpr",
        "es"
      ],
      [
        "Ġsegu",
        "rada"
      ],
      [
        "il",
        "idades"
      ],
      [
        "Ġint",
        "eiro"
      ],
      [
        "ĠC",
        "h"
      ],
      [
        "ĠC",
        "IR"
      ],
      [
        "ĠC",
        "LAV"
      ],
      [
        "ĠE",
        "x"
      ],
      [
        "Ġpar",
        "es"
      ],
      [
        "Ġest",
        "iver"
      ],
      [
        "pa",
        "rar"
      ],
      [
        "pa",
        "utas"
      ],
      [
        "Ġal",
        "ca"
      ],
      [
        "Ġmu",
        "ndo"
      ],
      [
        "Ġmu",
        "dar"
      ],
      [
        "inh",
        "a"
      ],
      [
        "inh",
        "o"
      ],
      [
        "Ġg",
        "Ã©n"
      ],
      [
        "Ġdes",
        "te"
      ],
      [
        "Ġdes",
        "se"
      ],
      [
        "Ġdes",
        "ce"
      ],
      [
        "Ġdes",
        "envol"
      ],
      [
        "ĠP",
        "iano"
      ],
      [
        "Ġmostra",
        "m"
      ],
      [
        "Ġmostra",
        "r"
      ],
      [
        "Ġmostra",
        "mos"
      ],
      [
        "Ġmo",
        "dos"
      ],
      [
        "Ġap",
        "lica"
      ],
      [
        "Ġper",
        "to"
      ],
      [
        "Ġper",
        "ceber"
      ],
      [
        "ul",
        "os"
      ],
      [
        "ic",
        "e"
      ],
      [
        "ic",
        "ular"
      ],
      [
        "Ġso",
        "a"
      ],
      [
        "Ġaument",
        "a"
      ],
      [
        "Ġsua",
        "ve"
      ],
      [
        "ĠN",
        "OT"
      ],
      [
        "Ġutiliz",
        "am"
      ],
      [
        "cont",
        "rar"
      ],
      [
        "itar",
        "ra"
      ],
      [
        "Ġpart",
        "icular"
      ],
      [
        "Ġdura",
        "r"
      ],
      [
        "Ġfaz",
        "emos"
      ],
      [
        "pe",
        "Ã§a"
      ],
      [
        "Ġcompos",
        "ta"
      ],
      [
        "Ġle",
        "itura"
      ],
      [
        "ou",
[...]
