{
  "version": "1.0",
  "truncation": null,
  "padding": null,
  "added_tokens": [
    {
      "id": 0,
      "content": "<pad>",
      "single_word": false,
      "lstrip": false,
      "rstrip": false,
      "normalized": false,
      "special": true
    },
    {
      "id": 1,
      "content": "<bos>",
      "single_word": false,
      "lstrip": false,
      "rstrip": false,
      "normalized": false,
      "special": true
    },
    {
      "id": 2,
      "content": "<eos>",
      "single_word": false,
      "lstrip": false,
      "rstrip": false,
      "normalized": false,
      "special": true
    },
    {
      "id": 3,
      "content": "<unk>",
      "single_word": false,
      "lstrip": false,
      "rstrip": false,
      "normalized": false,
      "special": true
    },
    {
      "id": 4,
      "content": "<registro>",
      "single_word": false,
      "lstrip": false,
      "rstrip": false,
      "normalized": false,
      "special": true
    },
    {
      "id": 5,
      "content": "</registro>",
      "single_word": false,
      "lstrip": false,
      "rstrip": false,
      "normalized": false,
      "special": true
    },
    {
      "id": 6,
      "content": "<conceito>",
      "single_word": false,
      "lstrip": false,
      "rstrip": false,
      "normalized": false,
      "special": true
    },
    {
      "id": 7,
      "content": "</conceito>",
      "single_word": false,
      "lstrip": false,
      "rstrip": false,
      "normalized": false,
      "special": true
    },
    {
      "id": 8,
      "content": "<conteudo>",
      "single_word": false,
      "lstrip": false,
      "rstrip": false,
      "normalized": false,
      "special": true
    },
    {
      "id": 9,
      "content": "</conteudo>",
      "single_word": false,
      "lstrip": false,
      "rstrip": false,
      "normalized": false,
      "special": true
    },
    {
      "id": 10,
      "content": "<pergunta>",
      "single_word": false,
      "lstrip": false,
      "rstrip": false,
      "normalized": false,
      "special": true
    },
    {
      "id": 11,
      "content": "</pergunta>",
      "single_word": false,
      "lstrip": false,
      "rstrip": false,
      "normalized": false,
      "special": true
    },
    {
      "id": 12,
      "content": "<resposta>",
      "single_word": false,
      "lstrip": false,
      "rstrip": false,
      "normalized": false,
      "special": true
    },
    {
      "id": 13,
      "content": "</resposta>",
      "single_word": false,
      "lstrip": false,
      "rstrip": false,
      "normalized": false,
      "special": true
    },
    {
      "id": 14,
      "content": "<exercicio>",
      "single_word": false,
      "lstrip": false,
      "rstrip": false,
      "normalized": false,
      "special": true
    },
    {
      "id": 15,
      "content": "</exercicio>",
      "single_word": false,
      "lstrip": false,
      "rstrip": false,
      "normalized": false,
      "special": true
    },
    {
      "id": 16,
      "content": "<analise>",
      "single_word": false,
      "lstrip": false,
      "rstrip": false,
      "normalized": false,
      "special": true
    },
    {
      "id": 17,
      "content": "</analise>",
      "single_word": false,
      "lstrip": false,
      "rstrip": false,
      "normalized": false,
      "special": true
    }
  ],
  "normalizer": {
    "type": "NFKC"
  },
  "pre_tokenizer": {
    "type": "ByteLevel",
    "add_prefix_space": false,
    "trim_offsets": true,
    "use_regex": true
  },
  "post_processor": null,
  "decoder": {
    "type": "ByteLevel",
    "add_prefix_space": true,
    "trim_offsets": true,
    "use_regex": true
  },
  "model": {
    "type": "BPE",
    "dropout": null,
    "unk_token": "<unk>",
    "continuing_subword_prefix": null,
    "end_of_word_suffix": null,
    "fuse_unk": true,
    "byte_fallback": false,
    "ignore_merges": false,
    "vocab": {
      "<pad>": 0,
      "<bos>": 1,
      "<eos>": 2,
      "<unk>": 3,
      "<registro>": 4,
      "</registro>": 5,
      "<conceito>": 6,
      "</conceito>": 7,
      "<conteudo>": 8,
      "</conteudo>": 9,
      "<pergunta>": 10,
      "</pergunta>": 11,
      "<resposta>": 12,
      "</resposta>": 13,
      "<exercicio>": 14,
      "</exercicio>": 15,
      "<analise>": 16,
      "</analise>": 17,
      "!": 18,
      "\"": 19,
      "#": 20,
      "$": 21,
      "%": 22,
      "&": 23,
      "'": 24,
      "(": 25,
      ")": 26,
      "*": 27,
      "+": 28,
      ",": 29,
      "-": 30,
      ".": 31,
      "/": 32,
      "0": 33,
      "1": 34,
      "2": 35,
      "3": 36,
      "4": 37,
      "5": 38,
      "6": 39,
      "7": 40,
      "8": 41,
      "9": 42,
      ":": 43,
      ";": 44,
      "<": 45,
      "=": 46,
      ">": 47,
      "?": 48,
      "@": 49,
      "A": 50,
      "B": 51,
      "C": 52,
      "D": 53,
      "E": 54,
      "F": 55,
      "G": 56,
      "H": 57,
      "I": 58,
      "J": 59,
      "K": 60,
      "L": 61,
      "M": 62,
      "N": 63,
      "O": 64,
      "P": 65,
      "Q": 66,
      "R": 67,
      "S": 68,
      "T": 69,
      "U": 70,
      "V": 71,
      "W": 72,
      "X": 73,
      "Y": 74,
      "Z": 75,
      "[": 76,
      "\\": 77,
      "]": 78,
      "^": 79,
      "_": 80,
      "`": 81,
      "a": 82,
      "b": 83,
      "c": 84,
      "d": 85,
      "e": 86,
      "f": 87,
      "g": 88,
      "h": 89,
      "i": 90,
      "j": 91,
      "k": 92,
      "l": 93,
      "m": 94,
      "n": 95,
      "o": 96,
      "p": 97,
      "q": 98,
      "r": 99,
      "s": 100,
      "t": 101,
      "u": 102,
      "v": 103,
      "w": 104,
      "x": 105,
      "y": 106,
      "z": 107,
      "{": 108,
      "|": 109,
      "}": 110,
      "~": 111,
      "¡": 112,
      "¢": 113,
      "£": 114,
      "¤": 115,
      "¥": 116,
      "¦": 117,
      "§": 118,
      "¨": 119,
      "©": 120,
      "ª": 121,
      "«": 122,
      "¬": 123,
      "®": 124,
      "¯": 125,
      "°": 126,
      "±": 127,
      "²": 128,
      "³": 129,
      "´": 130,
      "µ": 131,
      "¶": 132,
      "·": 133,
      "¸": 134,
      "¹": 135,
      "º": 136,
      "»": 137,
      "¼": 138,
      "½": 139,
      "¾": 140,
      "¿": 141,
      "À": 142,
      "Á": 143,
      "Â": 144,
      "Ã": 145,
      "Ä": 146,
      "Å": 147,
      "Æ": 148,
      "Ç": 149,
      "È": 150,
      "É": 151,
      "Ê": 152,
      "Ë": 153,
      "Ì": 154,
      "Í": 155,
      "Î": 156,
      "Ï": 157,
      "Ð": 158,
      "Ñ": 159,
      "Ò": 160,
      "Ó": 161,
      "Ô": 162,
      "Õ": 163,
      "Ö": 164,
      "×": 165,
      "Ø": 166,
      "Ù": 167,
      "Ú": 168,
      "Û": 169,
      "Ü": 170,
      "Ý": 171,
      "Þ": 172,
      "ß": 173,
      "à": 174,
      "á": 175,
      "â": 176,
      "ã": 177,
      "ä": 178,
      "å": 179,
      "æ": 180,
      "ç": 181,
      "è": 182,
      "é": 183,
      "ê": 184,
      "ë": 185,
      "ì": 186,
      "í": 187,
      "î": 188,
      "ï": 189,
      "ð": 190,
      "ñ": 191,
      "ò": 192,
      "ó": 193,
      "ô": 194,
      "õ": 195,
      "ö": 196,
      "÷": 197,
      "ø": 198,
      "ù": 199,
      "ú": 200,
      "û": 201,
      "ü": 202,
      "ý": 203,
      "þ": 204,
      "ÿ": 205,
      "Ā": 206,
      "ā": 207,
      "Ă": 208,
      "ă": 209,
      "Ą": 210,
      "ą": 211,
      "Ć": 212,
      "ć": 213,
      "Ĉ": 214,
      "ĉ": 215,
      "Ċ": 216,
      "ċ": 217,
      "Č": 218,
      "č": 219,
      "Ď": 220,
      "ď": 221,
      "Đ": 222,
      "đ": 223,
      "Ē": 224,
      "ē": 225,
      "Ĕ": 226,
      "ĕ": 227,
      "Ė": 228,
      "ė": 229,
      "Ę": 230,
      "ę": 231,
      "Ě": 232,
      "ě": 233,
      "Ĝ": 234,
      "ĝ": 235,
      "Ğ": 236,
      "ğ": 237,
      "Ġ": 238,
      "ġ": 239,
      "Ģ": 240,
      "ģ": 241,
      "Ĥ": 242,
      "ĥ": 243,
      "Ħ": 244,
      "ħ": 245,
      "Ĩ": 246,
      "ĩ": 247,
      "Ī": 248,
      "ī": 249,
      "Ĭ": 250,
      "ĭ": 251,
      "Į": 252,
      "į": 253,
      "İ": 254,
      "ı": 255,
      "Ĳ": 256,
      "ĳ": 257,
      "Ĵ": 258,
      "ĵ": 259,
      "Ķ": 260,
      "ķ": 261,
      "ĸ": 262,
      "Ĺ": 263,
      "ĺ": 264,
      "Ļ": 265,
      "ļ": 266,
      "Ľ": 267,
      "ľ": 268,
      "Ŀ": 269,
      "ŀ": 270,
      "Ł": 271,
      "ł": 272,
      "Ń": 273,
      "Ġe": 274,
      "re": 275,
      "co": 276,
      "Ġd": 277,
      "te": 278,
      "£o": 279,
      "Ã£o": 280,
      "Ġp": 281,
      "Ã§": 282,
      "Ġco": 283,
      "ra": 284,
      "Ġa": 285,
      "st": 286,
      "Ġde": 287,
      "Ã§Ã£o": 288,
      "en": 289,
      "Ġo": 290,
      "er": 291,
      "Ġs": 292,
      "ro": 293,
      "ca": 294,
      "do": 295,
      "ma": 296,
      "Ġre": 297,
      "to": 298,
      "ta": 299,
      "ri": 300,
      "Ġcom": 301,
      "Ġu": 302,
      "da": 303,
      "in": 304,
      "is": 305,
      "Ġm": 306,
      "ica": 307,
      "ist": 308,
      "Ġ<": 309,
      "ci": 310,
      "lo": 311,
      "Ġcon": 312,
      "or": 313,
      "gist": 314,
      "gistro": 315,
      "Ġf": 316,
      "qu": 317,
      "Ġpa": 318,
      "va": 319,
      "ti": 320,
      "la": 321,
      "Ġem": 322,
      "ura": 323,
      "so": 324,
      "nte": 325,
      "rÃ": 326,
      "un": 327,
      "que": 328,
      "Ġest": 329,
      "Ġum": 330,
      "de": 331,
      "men": 332,
      "Ġse": 333,
      "tura": 334,
      "al": 335,
      "Ġex": 336,
      "registro": 337,
      "sa": 338,
      "nci": 339,
      "Ġn": 340,
      "Ġi": 341,
      "Ġcomp": 342,
      "sc": 343,
      "res": 344,
      "Ġte": 345,
      "ns": 346,
      "ei": 347,
      "po": 348,
      "Ġv": 349,
      "ve": 350,
      "du": 351,
      "cu": 352,
      "an": 353,
      "Ã©": 354,
      "Ġid": 355,
      "</": 356,
      "Ġuma": 357,
      "Ġos": 358,
      "Ġb": 359,
      "Ã¡": 360,
      "em": 361,
      "tra": 362,
      "tro": 363,
      "li": 364,
      "ncia": 365,
      "Ġma": 366,
      "Ãª": 367,
      "fica": 368,
      "Ġdo": 369,
      "Ġso": 370,
      "unÃ§Ã£o": 371,
      "di": 372,
      "le": 373,
      "Ġou": 374,
      "ĠfunÃ§Ã£o": 375,
      "sta": 376,
      "Ġper": 377,
      "os": 378,
      "tre": 379,
      "Ġcomo": 380,
      "Ġpe": 381,
      "Ġrep": 382,
      "Ġque": 383,
      "Ġmo": 384,
      "ĠA": 385,
      "Ġc": 386,
      "ota": 387,
      "Ġnota": 388,
      "Ãªncia": 389,
      "Ġba": 390,
      "Ġfor": 391,
      "Ã§a": 392,
      "Ġnotas": 393,
      "mi": 394,
      "nc": 395,
      "ĠrÃ": 396,
      "Ġal": 397,
      "Ġregistro": 398,
      "me": 399,
      "udo": 400,
      "trein": 401,
      "\">": 402,
      "=\"": 403,
      "Ġas": 404,
      "eito": 405,
      "cur": 406,
      "treino": 407,
      ".</": 408,
      "Ġdesc": 409,
      "Ġ</": 410,
      "mente": 411,
      "Ġver": 412,
      "duz": 413,
      "tos": 414,
      "ise": 415,
      "Ġca": 416,
      "ido": 417,
      "ina": 418,
      "Ġdi": 419,
      "es": 420,
      "ix": 421,
      "ixo": 422,
      "ui": 423,
      "cor": 424,
      "Ġmu": 425,
      "tri": 426,
      "ssa": 427,
      "Ġob": 428,
      "Ġh": 429,
      "ficar": 430,
      "sÃ£o": 431,
      "Ġbaixo": 432,
      "ol": 433,
      "Ã´": 434,
      "Ńt": 435,
      "ĠrÃŃt": 436,
      "Ġto": 437,
      "Ġpara": 438,
      "dade": 439,
      "Ġmen": 440,
      "ente": 441,
      "tera": 442,
      "Co": 443,
      "lu": 444,
      "Ġesc": 445,
      "emp": 446,
      "posta": 447,
      "gun": 448,
      "tiva": 449,
      "Ġexemp": 450,
      "ando": 451,
      "Ġpela": 452,
      "Ġexemplo": 453,
      "ara": 454,
      "ru": 455,
      "¢me": 456,
      "ĠN": 457,
      "Ġdeve": 458,
      "Ġser": 459,
      "roduz": 460,
      "ĠparÃ": 461,
      "ntes": 462,
      "Ġestru": 463,
      "Ġaltera": 464,
      "curso": 465,
      "¢metro": 466,
      "ĠparÃ¢metro": 467,
      "Ġestrutura": 468,
      "ĠU": 469,
      "alise": 470,
      "ĠD": 471,
      "Ã³": 472,
      "ar": 473,
      "Ġsu": 474,
      "mp": 475,
      "mento": 476,
      "ste": 477,
      "on": 478,
      "mb": 479,
      "si": 480,
      "Ġforma": 481,
      "Ġin": 482,
      "as": 483,
      "dal": 484,
      "ior": 485,
      "Ġmaior": 486,
      "ĠE": 487,
      "corde": 488,
      "Ġcla": 489,
      "Ġcontra": 490,
      "Ã©tri": 491,
      "nÃ§a": 492,
      "Ġson": 493,
      "mina": 494,
      "Ġpassa": 495,
      "µes": 496,
      "Ãµes": 497,
      "Ġpon": 498,
      "Ġme": 499,
      "Ġqu": 500,
      "Ġg": 501,
      "cordes": 502,
      "se": 503,
      "Ġau": 504,
      "Ã´n": 505,
      "laÃ§Ã£o": 506,
      "ver": 507,
      "sica": 508,
      "Ġmusica": 509,
      "ul": 510,
      "rie": 511,
      "Ġmenor": 512,
      "rÃ¡": 513,
      "mico": 514,
      "ĠrÃŃtmico": 515,
      "za": 516,
      "rti": 517,
      "Ġsi": 518,
      "Ġan": 519,
      "Ġap": 520,
      "ĠmÃ©tri": 521,
      "Ġacordes": 522,
      "los": 523,
      "Ġvo": 524,
      "Ġor": 525,
      "Ġcondu": 526,
      "nsi": 527,
      "ĠconduÃ§Ã£o": 528,
      "Qu": 529,
      "gunta": 530,
      "ec": 531,
      "ere": 532,
      "fere": 533,
      "iÃ§Ã£o": 534,
      "nh": 535,
      "per": 536,
      "ser": 537,
      "ĠQu": 538,
      "reen": 539,
      "conte": 540,
      "conc": 541,
      "enti": 542,
      "Ġrecurso": 543,
      "rita": 544,
      "nten": 545,
      "Ġestudo": 546,
      "Ġcomple": 547,
      "Ġcompreen": 548,
      "resposta": 549,
      "Ġidenti": 550,
      "ditiva": 551,
      "Ġdifere": 552,
      "Ġobser": 553,
      "Ġauditiva": 554,
      "pergunta": 555,
      "ĠQuando": 556,
      "conteudo": 557,
      "conceito": 558,
      "Ġcompleta": 559,
      "Ġobserve": 560,
      "ab": 561,
      "bui": 562,
      "ex": 563,
      "eti": 564,
      "epo": 565,
      "fi": 566,
      "feito": 567,
      "lica": 568,
      "tÃ©": 569,
      "xtura": 570,
      "ze": 571,
      "ĠP": 572,
      "Ġev": 573,
      "Ġefeito": 574,
      "reva": 575,
      "Ġdist": 576,
      "Ġdura": 577,
      "Ġpres": 578,
      "Ġpos": 579,
      "Ġava": 580,
      "entos": 581,
      "erci": 582,
      "erÃªncia": 583,
      "Ġreso": 584,
      "rios": 585,
      "cio": 586,
      "Ġestab": 587,
      "Ġexp": 588,
      "ĠnÃ£o": 589,
      "Ġtens": 590,
      "Ġtextura": 591,
      "Ġveri": 592,
      "ĠversÃ£o": 593,
      "luÃ§Ã£o": 594,
      "Ġestrutural": 595,
      "ĠUma": 596,
      "ĠDepo": 597,
      "Ġsono": 598,
      "Ġidentificar": 599,
      "exerci": 600,
      "ĠduraÃ§Ã£o": 601,
      "Ġavali": 602,
      "ĠresoluÃ§Ã£o": 603,
      "ĠDepois": 604,
      "exercicio": 605,
      "analise": 606,
      "Ġrepeti": 607,
      "ĠrepetiÃ§Ã£o": 608,
      "Ã´nica": 609,
      "ĠF": 610,
      "mo": 611,
      "ĠS": 612,
      "ico": 613,
      "mada": 614,
      "Ġho": 615,
      "Ġter": 616,
      "Ġhar": 617,
      "Ġharm": 618,
      "Ã¡ri": 619,
      "Ġbem": 620,
      "Ġbemol": 621,
      "ÃŃ": 622,
      "Ġmodal": 623,
      "tu": 624,
      "usa": 625,
      "ola": 626,
      "ata": 627,
      "min": 628,
      "stra": 629,
      "dÃªncia": 630,
      "ĠharmÃ´nica": 631,
      "trans": 632,
      "vis": 633,
      "Ġtrans": 634,
      "Ã§Ãµes": 635,
      "Ġva": 636,
      "Ġdes": 637,
      "Ã¢": 638,
      "Ġinte": 639,
      "fin": 640,
      "olo": 641,
      "rada": 642,
      "Ġac": 643,
      "Ġdefin": 644,
      "loca": 645,
      "danÃ§a": 646,
      "cia": 647,
      "Ġouv": 648,
      "ĠmudanÃ§a": 649,
      "rva": 650,
      "teri": 651,
      "mica": 652,
      "lÃ³": 653,
      "tica": 654,
      "ĠmelÃ³": 655,
      "Ġinterva": 656,
      "asso": 657,
      "vo": 658,
      "nÃ¢": 659,
      "sonÃ¢": 660,
      "sonÃ¢ncia": 661,
      "Ġcompasso": 662,
      "enta": 663,
      "mÃ¡": 664,
      "Ġmusical": 665,
      "ju": 666,
      "Ġju": 667,
      "ulso": 668,
      "sti": 669,
      "dos": 670,
      "ado": 671,
      "gan": 672,
      "gem": 673,
      "vol": 674,
      "Ġen": 675,
      "envol": 676,
      "ing": 677,
      "culaÃ§Ã£o": 678,
      "Ġpassagem": 679,
      "seado": 680,
      "zaÃ§Ã£o": 681,
      "ig": 682,
      "ita": 683,
      "rticulaÃ§Ã£o": 684,
      "Ġpulso": 685,
      "Ã¡l": 686,
      "les": 687,
      "ĠrÃŃtmica": 688,
      "mples": 689,
      "Ġsimples": 690,
      "Ġti": 691,
      "Ġsom": 692,
      "mbre": 693,
      "ĠmÃ©trica": 694,
      "Ġtimbre": 695,
      "dica": 696,
      "ja": 697,
      "ĠsÃŃ": 698,
      "Ġna": 699,
      "Ġaltura": 700,
      "Ġsub": 701,
      "Ġponto": 702,
      "ĠmelÃ³dica": 703,
      "nal": 704,
      "pe": 705,
      "zes": 706,
      "Ġdis": 707,
      "ĠarticulaÃ§Ã£o": 708,
      "Ġdensi": 709,
      "Ġsen": 710,
      "domina": 711,
      "tivo": 712,
      "Ġmotivo": 713,
      "Ġvozes": 714,
      "Ġdesenvol": 715,
      "Ġintervalos": 716,
      "ĠdissonÃ¢ncia": 717,
      "Ġdensidade": 718,
      "for": 719,
      "rque": 720,
      "Comp": 721,
      "tes": 722,
      "ĠO": 723,
      "der": 724,
      "sposta": 725,
      "Ġdeco": 726,
      "Ġresposta": 727,
      "Ġconte": 728,
      "Ġregistros": 729,
      "?</": 730,
      "Crie": 731,
      "Pri": 732,
      "are": 733,
      "amin": 734,
      "bi": 735,
      "bre": 736,
      "bul": 737,
      "ce": 738,
      "cn": 739,
      "ecu": 740,
      "ele": 741,
      "eÃ§a": 742,
      "etiva": 743,
      "ferÃªncia": 744,
      "jetiva": 745,
      "mei": 746,
      "oco": 747,
      "rte": 748,
      "rmada": 749,
      "tÃ³": 750,
      "ue": 751,
      "uver": 752,
      "xto": 753,
      "³tu": 754,
      "Ġl": 755,
      "Ġis": 756,
      "ĠÃ©": 757,
      "Ġcur": 758,
      "ĠtÃ©": 759,
      "Ġloca": 760,
      "ĠComp": 761,
      "Ġeste": 762,
      "Ġenten": 763,
      "reÃ§Ã£o": 764,
      "conh": 765,
      "Ġpor": 766,
      "Ġproduz": 767,
      "ĠprÃ¡": 768,
      "rar": 769,
      "ramente": 770,
      "Ġdema": 771,
      "entra": 772,
      "enÃ´": 773,
      "enas": 774,
      "ertÃ³": 775,
      "Ġsido": 776,
      "cabul": 777,
      "Ġrela": 778,
      "Ġrede": 779,
      "ĠreferÃªncia": 780,
      "Ġreconh": 781,
      "tons": 782,
      "tamento": 783,
      "riÃ§Ã£o": 784,
      "ribui": 785,
      "Ġcomun": 786,
      "ĠcomeÃ§a": 787,
      "Ġuso": 788,
      "Ġconsta": 789,
      "Ġconsi": 790,
      "Ġconec": 791,
      "Ġconfi": 792,
      "ortamento": 793,
      "Ġfoco": 794,
      "ĠfenÃ´": 795,
      "Ġparti": 796,
      "Ġparte": 797,
      "ĠestÃ¡": 798,
      "derada": 799,
      "meno": 800,
      "Ġsem": 801,
      "Ġseu": 802,
      "Ġsemi": 803,
      "Ġexamin": 804,
      "Ġexecu": 805,
      "Ġcompara": 806,
      "Ġcomportamento": 807,
      "resenta": 808,
      "Ġtenh": 809,
      "veis": 810,
      "lique": 811,
      "lize": 812,
      "Ġmanten": 813,
      "Ġmarque": 814,
      "ficaÃ§Ã£o": 815,
      "Ġdois": 816,
      "Ġsobre": 817,
      "dido": 818,
      "divis": 819,
      "Ġoutra": 820,
      "Ġoutro": 821,
      "stante": 822,
      "Ġpermi": 823,
      "Ġperce": 824,
      "Ġreproduz": 825,
      "ĠrepertÃ³": 826,
      "Ġrepresenta": 827,
      "Ġcentra": 828,
      "ĠrÃ³tu": 829,
      "Ġdescrita": 830,
      "ĠdescriÃ§Ã£o": 831,
      "Ġcante": 832,
      "ĠdireÃ§Ã£o": 833,
      "Ġobjetiva": 834,
      "Ġtoque": 835,
      "Como": 836,
      "Ġescrita": 837,
      "Ġescreva": 838,
      "ĠNa": 839,
      "ĠNo": 840,
      "Ġalterado": 841,
      "ĠparÃ¢metros": 842,
      "Ġsua": 843,
      "mbolo": 844,
      "Ġformal": 845,
      "ĠEssa": 846,
      "Ġclaramente": 847,
      "Ġcontrastante": 848,
      "Ġquando": 849,
      "Ġmusicais": 850,
      "ĠanÃ¡l": 851,
      "Ġaplica": 852,
      "Ġapenas": 853,
      "Ġvocabul": 854,
      "ecer": 855,
      "ĠcompreensÃ£o": 856,
      "Ġcompreendido": 857,
      "Ġdiferentes": 858,
      "ĠdiferenÃ§a": 859,
      "ĠPara": 860,
      "Ġevita": 861,
      "Ġdistribui": 862,
      "Ġpresente": 863,
      "ĠposiÃ§Ã£o": 864,
      "Ġestabele": 865,
      "Ġexplique": 866,
      "ĠtensÃµes": 867,
      "ĠverificaÃ§Ã£o": 868,
      "Ġestruturalmente": 869,
      "Ġsonoro": 870,
      "Ġhouver": 871,
      "Ġtermina": 872,
      "Ã¡rio": 873,
      "olada": 874,
      "Ġtransfor": 875,
      "Ġacentos": 876,
      "ĠdefiniÃ§Ã£o": 877,
      "Ġjusti": 878,
      "ĠsÃŃmbolo": 879,
      "Ġsubdivis": 880,
      "Ġdecorar": 881,
      "Ġcontexto": 882,
      "Primei": 883,
      "bida": 884,
      "cnico": 885,
      "Ġisolada": 886,
      "Ġcurto": 887,
      "ĠtÃ©cnico": 888,
      "Ġlocalize": 889,
      "ĠCompare": 890,
      "Ġesteja": 891,
      "Ġentender": 892,
      "Ġproduzido": 893,
      "ĠprÃ¡tica": 894,
      "Ġdemais": 895,
      "ĠrelaÃ§Ãµes": 896,
      "Ġreconhecer": 897,
      "Ġcomuns": 898,
      "Ġconstantes": 899,
      "Ġconsiderada": 900,
      "Ġconecta": 901,
      "Ġconfirmada": 902,
      "ĠfenÃ´meno": 903,
      "Ġpartitura": 904,
      "ĠestÃ¡veis": 905,
      "Ġsemitons": 906,
      "Ġexamine": 907,
      "Ġexecute": 908,
      "ĠcomparaÃ§Ã£o": 909,
      "Ġtenha": 910,
      "Ġmantendo": 911,
      "Ġpermite": 912,
      "Ġpercebida": 913,
      "Ġreproduzi": 914,
      "ĠrepertÃ³rios": 915,
      "ĠrepresentaÃ§Ã£o": 916,
      "Ġcentrado": 917,
      "ĠrÃ³tulos": 918,
      "ĠanÃ¡lise": 919,
      "ĠaplicaÃ§Ã£o": 920,
      "ĠvocabulÃ¡rio": 921,
      "ĠdistribuiÃ§Ã£o": 922,
      "ĠestabeleÃ§a": 923,
      "ĠtransformÃ¡": 924,
      "Ġjustificar": 925,
      "ĠsubdivisÃ£o": 926,
      "Primeiro": 927,
      "Inc": 928,
      "amen": 929,
      "atro": 930,
      "bal": 931,
      "gres": 932,
      "gui": 933,
      "he": 934,
      "ito": 935,
      "ilo": 936,
      "ili": 937,
      "ize": 938,
      "icia": 939,
      "izaÃ§Ã£o": 940,
      "lÃª": 941,
      "lhe": 942,
      "ndo": 943,
      "nÃªncia": 944,
      "namen": 945,
      "pal": 946,
      "pres": 947,
      "para": 948,
      "sis": 949,
      "uma": 950,
      "uso": 951,
      "ven": 952,
      "Ãł": 953,
      "ĠInc": 954,
      "ĠÃł": 955,
      "rever": 956,
      "reza": 957,
      "redomina": 958,
      "reven": 959,
      "cos": 960,
      "tente": 961,
      "tenc": 962,
      "Ġpro": 963,
      "Ġpri": 964,
      "Ġpredomina": 965,
      "Ġcoin": 966,
      "Ġcole": 967,
      "ĠcoerÃªncia": 968,
      "stina": 969,
      "Ġdeta": 970,
      "Ġdecor": 971,
      "Ġdestina": 972,
      "Ġoito": 973,
      "manÃªncia": 974,
      "Ġrepo": 975,
      "ĠrelaÃ§Ã£o": 976,
      "ritÃ©": 977,
      "Ġusa": 978,
      "inal": 979,
      "cidÃªncia": 980,
      "lobal": 981,
      "Ġconduz": 982,
      "Ġcontri": 983,
      "Ġconsis": 984,
      "Ġpape": 985,
      "vamente": 986,
      "Ġestilo": 987,
      "dere": 988,
      "Ġsegun": 989,
      "Ġsegui": 990,
      "Ġsepara": 991,
      "Ġexig": 992,
      "saÃ§Ã£o": 993,
      "ncio": 994,
      "ncipal": 995,
      "Ġime": 996,
      "eitura": 997,
      "Ġmateri": 998,
      "Ġsomente": 999,
      "diata": 1000,
      "Ġpercurso": 1001,
      "Ġpertenc": 1002,
      "ĠpermanÃªncia": 1003,
      "Ġpelo": 1004,
      "Ġpedal": 1005,
      "Ġmomento": 1006,
      "Ġmostra": 1007,
      "ĠApres": 1008,
      "ĠcritÃ©": 1009,
      "Ġbaseado": 1010,
      "Ġfortes": 1011,
      "Ġdescreva": 1012,
      "Ġdescreven": 1013,
      "Ġcada": 1014,
      "Ġcausa": 1015,
      "Ġtoda": 1016,
      "Ġtonal": 1017,
      "Ġmenos": 1018,
      "entes": 1019,
      "Consi": 1020,
      "lua": 1021,
      "Ġescrever": 1022,
      "ĠNÃ£o": 1023,
      "roduza": 1024,
      "Ġalterando": 1025,
      "Ġestruturais": 1026,
      "ĠUse": 1027,
      "sivamente": 1028,
      "Ġinicia": 1029,
      "ĠEm": 1030,
      "Ġclareza": 1031,
      "Ġcontraste": 1032,
      "Ġpontos": 1033,
      "Ġmera": 1034,
      "Ġquatro": 1035,
      "ĠgrÃ¡": 1036,
      "Ġglobal": 1037,
      "riedade": 1038,
      "ĠsilÃª": 1039,
      "Ġanalise": 1040,
      "ĠmÃ©tricos": 1041,
      "Ġorgan": 1042,
      "Ġornamen": 1043,
      "fique": 1044,
      "licar": 1045,
      "ĠProduza": 1046,
      "Ġeventos": 1047,
      "Ġdisting": 1048,
      "Ġpresuma": 1049,
      "Ġpossa": 1050,
      "Ġestabili": 1051,
      "Ġexplicar": 1052,
      "ĠtensÃ£o": 1053,
      "Ġverifique": 1054,
      "Ġsonora": 1055,
      "Ġavalie": 1056,
      "Ġavaliar": 1057,
      "ĠFinal": 1058,
      "Ġvariedade": 1059,
      "Ġouvido": 1060,
      "Ġentre": 1061,
      "ĠsensaÃ§Ã£o": 1062,
      "Ġdesenvolva": 1063,
      "Ġleitura": 1064,
      "gressivamente": 1065,
      "ĠInclua": 1066,
      "Ġprogressivamente": 1067,
      "Ġprincipal": 1068,
      "Ġpredominantes": 1069,
      "ĠcoincidÃªncia": 1070,
      "ĠcoleÃ§Ã£o": 1071,
      "Ġdetalhe": 1072,
      "Ġdecorre": 1073,
      "Ġdestinado": 1074,
      "Ġrepouso": 1075,
      "Ġusados": 1076,
      "Ġcontribui": 1077,
      "Ġconsistente": 1078,
      "Ġpapel": 1079,
      "Ġsegunda": 1080,
      "Ġseguida": 1081,
      "Ġseparar": 1082,
      "Ġexige": 1083,
      "Ġimediata": 1084,
      "Ġmaterial": 1085,
      "Ġpertencentes": 1086,
      "ĠApresente": 1087,
      "ĠcritÃ©rios": 1088,
      "Ġdescrevendo": 1089,
      "Considere": 1090,
      "ĠgrÃ¡fica": 1091,
      "ĠsilÃªncio": 1092,
      "ĠorganizaÃ§Ã£o": 1093,
      "Ġornamentos": 1094,
      "Ġdistingue": 1095,
      "Ġestabilidade": 1096,
      "ĠFinalize": 1097,
      "ĠSi": 1098,
      "LÃ¡": 1099,
      "ĠLÃ¡": 1100,
      "12": 1101,
      "ĠSol": 1102,
      "ĠDÃ³": 1103,
      "nido": 1104,
      "Ġsuste": 1105,
      "Ġsustenido": 1106,
      "das": 1107,
      "fÃ´nica": 1108,
      "Ġ5": 1109,
      "Ġ12": 1110,
      "Ġcamada": 1111,
      "mofÃ´nica": 1112,
      "ĠhomofÃ´nica": 1113,
      "Ġcamadas": 1114,
      "cala": 1115,
      "scala": 1116,
      "adas": 1117,
      "ir": 1118,
      "Ġtro": 1119,
      "ch": 1120,
      "lch": 1121,
      "Ġcolch": 1122,
      "Ã¡ria": 1123,
      "Ġcolchei": 1124,
      "Ġescala": 1125,
      "ĠC": 1126,
      "ĠAb": 1127,
      "ĠDb": 1128,
      "10": 1129,
      "13": 1130,
      "14": 1131,
      "15": 1132,
      "16": 1133,
      "ĠM": 1134,
      "Ġt": 1135,
      "ĠFÃ¡": 1136,
      "ĠMi": 1137,
      "usas": 1138,
      "iola": 1139,
      "nÃ¡ria": 1140,
      "emiola": 1141,
      "Ġsonata": 1142,
      "ĠternÃ¡ria": 1143,
      "straÃ§Ã£o": 1144,
      "ade": 1145,
      "Ńade": 1146,
      "rÃŃade": 1147,
      "lia": 1148,
      "Ġdimin": 1149,
      "questraÃ§Ã£o": 1150,
      "17": 1151,
      "Ġpausas": 1152,
      "mpe": 1153,
      "aÃ§Ãµes": 1154,
      "rra": 1155,
      "ssi": 1156,
      "rovis": 1157,
      "riaÃ§Ãµes": 1158,
      "Ġsequ": 1159,
      "Ġimp": 1160,
      "Ġtema": 1161,
      "Ġhemiola": 1162,
      "one": 1163,
      "ĠvariaÃ§Ãµes": 1164,
      "Ġimprovis": 1165,
      "imento": 1166,
      "vimento": 1167,
      "Ġdomina": 1168,
      "Ã´nico": 1169,
      "Ġdominante": 1170,
      "RÃ©": 1171,
      "ĠRÃ©": 1172,
      "elo": 1173,
      "orquestraÃ§Ã£o": 1174,
      "ĠtrÃŃade": 1175,
      "Ãº": 1176,
      "ag": 1177,
      "aixo": 1178,
      "baixo": 1179,
      "grada": 1180,
      "iolo": 1181,
      "lÃ©tri": 1182,
      "ote": 1183,
      "oÃ©": 1184,
      "por": 1185,
      "padas": 1186,
      "³fica": 1187,
      "ĠelÃ©tri": 1188,
      "copadas": 1189,
      "stico": 1190,
      "encia": 1191,
      "Ġsin": 1192,
      "ĠsÃ©": 1193,
      "Ġretro": 1194,
      "ĠreorquestraÃ§Ã£o": 1195,
      "tarra": 1196,
      "rimb": 1197,
      "Ġfag": 1198,
      "rÃ³fica": 1199,
      "ĠestrÃ³fica": 1200,
      "Ġviolo": 1201,
      "Ġmarimb": 1202,
      "ncelo": 1203,
      "uitarra": 1204,
      "ĠoboÃ©": 1205,
      "mbone": 1206,
      "Ġclassi": 1207,
      "Ġcontrabaixo": 1208,
      "Ġpontu": 1209,
      "Ġguitarra": 1210,
      "Ġtranspor": 1211,
      "Ġdesloca": 1212,
      "ĠacÃº": 1213,
      "Ġdefinir": 1214,
      "Ġouvir": 1215,
      "Ġtrompe": 1216,
      "Ġtrombone": 1217,
      "Ġcolcheias": 1218,
      "Ġsequencia": 1219,
      "Ġhemiolas": 1220,
      "Ġimprovisar": 1221,
      "gradaÃ§Ã£o": 1222,
      "ĠelÃ©trico": 1223,
      "Ġsincopadas": 1224,
      "ĠretrogradaÃ§Ã£o": 1225,
      "Ġfagote": 1226,
      "Ġvioloncelo": 1227,
      "Ġmarimba": 1228,
      "Ġclassificar": 1229,
      "Ġpontuadas": 1230,
      "Ġdeslocadas": 1231,
      "ĠacÃºstico": 1232,
      "Ġtrompete": 1233,
      "Ġsequenciamento": 1234,
      "cina": 1235,
      "glia": 1236,
      "caglia": 1237,
      "Ġbateri": 1238,
      "uiÃ§Ã£o": 1239,
      "Ġpassacaglia": 1240,
      "Ġtercina": 1241,
      "Ġcolcheia": 1242,
      "ĠdiminuiÃ§Ã£o": 1243,
      "Ġbateria": 1244,
      "Ġtercinas": 1245,
      "uta": 1246,
      "tima": 1247,
      "ga": 1248,
      "Ġpo": 1249,
      "ĠcadÃªncia": 1250,
      "dura": 1251,
      "ramento": 1252,
      "aÃ§Ã£o": 1253,
      "mpo": 1254,
      "Ġpla": 1255,
      "las": 1256,
      "lelas": 1257,
      "Ġparalelas": 1258,
      "ĠharmÃ´nico": 1259,
      "ĠsÃ©tima": 1260,
      "fra": 1261,
      "tado": 1262,
      "11": 1263,
      "Ġpenta": 1264,
      "lÃŃ": 1265,
      "Ġacorde": 1266,
      "romÃ¡": 1267,
      "Ġfra": 1268,
      "dico": 1269,
      "Ġmovimento": 1270,
      "ĠcromÃ¡": 1271,
      "Ġditado": 1272,
      "Ġinver": 1273,
      "ĠmelÃ³dico": 1274,
      "Ġintervalo": 1275,
      "Ġpoli": 1276,
      "ĠcromÃ¡tica": 1277,
      "ĠinversÃ£o": 1278,
      "ves": 1279,
      "fina": 1280,
      "litu": 1281,
      "mplitu": 1282,
      "Ġjusta": 1283,
      "finaÃ§Ã£o": 1284,
      "mplitude": 1285,
      "ost": 1286,
      "Ġcompost": 1287,
      "Ġcomposto": 1288,
      "at": 1289,
      "bramento": 1290,
      "gal": 1291,
      "iro": 1292,
      "ici": 1293,
      "ning": 1294,
      "osa": 1295,
      "pen": 1296,
      "paÃ§Ã£o": 1297,
      "spen": 1298,
      "trÃ¡": 1299,
      "tÃŃ": 1300,
      "um": 1301,
      "uga": 1302,
      "vico": 1303,
      "©sti": 1304,
      "tempo": 1305,
      "tas": 1306,
      "taÃ§Ã£o": 1307,
      "tais": 1308,
      "rio": 1309,
      "Ġcomum": 1310,
      "intas": 1311,
      "cipaÃ§Ã£o": 1312,
      "ĠcontrÃ¡": 1313,
      "ntecipaÃ§Ã£o": 1314,
      "rÃ©sti": 1315,
      "posi": 1316,
      "dia": 1317,
      "ĠmotÃŃ": 1318,
      "mitaÃ§Ã£o": 1319,
      "Ġalvo": 1320,
      "Ġdiat": 1321,
      "Ġtons": 1322,
      "entenÃ§a": 1323,
      "artais": 1324,
      "Ġquartais": 1325,
      "Ġinteiro": 1326,
      "ganosa": 1327,
      "Ġenganosa": 1328,
      "ĠtÃ´nica": 1329,
      "liacordes": 1330,
      "Ġdiminuta": 1331,
      "Ã´nicos": 1332,
      "Ġplagal": 1333,
      "fras": 1334,
      "icizaÃ§Ã£o": 1335,
      "spensÃ£o": 1336,
      "ĠcontrÃ¡rio": 1337,
      "rÃ©stimo": 1338,
      "posiÃ§Ã£o": 1339,
      "ĠmotÃŃvico": 1340,
      "ĠdiatÃ´nicos": 1341,
      "Ġinteiros": 1342,
      "liga": 1343,
      "ligadura": 1344,
      "nicizaÃ§Ã£o": 1345,
      "cifras": 1346,
      "lodia": 1347,
      "18": 1348,
      "19": 1349,
      "gu": 1350,
      "20": 1351,
      "23": 1352,
      "24": 1353,
      "25": 1354,
      "26": 1355,
      "27": 1356,
      "28": 1357,
      "29": 1358,
      "iÃ¡l": 1359,
      "requ": 1360,
      "ĠafinaÃ§Ã£o": 1361,
      "Ġamplitude": 1362,
      "Ġfig": 1363,
      "Ġfrequ": 1364,
      "uras": 1365,
      "Ġigu": 1366,
      "Ġtempe": 1367,
      "ĠquiÃ¡l": 1368,
      "ĠrÃŃtmicas": 1369,
      "Ġfiguras": 1370,
      "ĠfrequÃªncia": 1371,
      "Ġigual": 1372,
      "Ġtemperamento": 1373,
      "ĠquiÃ¡ltera": 1374,
      "30": 1375,
      "34": 1376,
      "35": 1377,
      "36": 1378,
      "37": 1379,
      "38": 1380,
      "39": 1381,
      "gra": 1382,
      "Ġligadura": 1383,
      "damento": 1384,
      "Ġno": 1385,
      "ĠnotaÃ§Ã£o": 1386,
      "Ġclaves": 1387,
      "Ġaumento": 1388,
      "Ġandamento": 1389,
      "ĠsÃ©rie": 1390,
      "Ġpentagra": 1391,
      "Ġpentagrama": 1392,
      "40": 1393,
      "45": 1394,
      "46": 1395,
      "47": 1396,
      "48": 1397,
      "49": 1398,
      "Escala": 1399,
      "Nota": 1400,
      "cun": 1401,
      "dÃ³": 1402,
      "dÃ¡ria": 1403,
      "ia": 1404,
      "ima": 1405,
      "idade": 1406,
      "jo": 1407,
      "no": 1408,
      "nco": 1409,
      "nto": 1410,
      "nota": 1411,
      "ntica": 1412,
      "none": 1413,
      "ndÃ³": 1414,
      "njo": 1415,
      "odo": 1416,
      "prÃ©stimo": 1417,
      "rs": 1418,
      "rdo": 1419,
      "rri": 1420,
      "rno": 1421,
      "ss": 1422,
      "sÃŃ": 1423,
      "tÃª": 1424,
      "tmi": 1425,
      "tÃ´nica": 1426,
      "xima": 1427,
      "Ġro": 1428,
      "Ġcifras": 1429,
      "Ġdin": 1430,
      "Ġapo": 1431,
      "Ġarra": 1432,
      "ĠantecipaÃ§Ã£o": 1433,
      "Ġoita": 1434,
      "ĠsentenÃ§a": 1435,
      "roxima": 1436,
      "max": 1437,
      "Ġreta": 1438,
      "tonal": 1439,
      "torno": 1440,
      "tada": 1441,
      "dadura": 1442,
      "inÃ¡ria": 1443,
      "ĠconsonÃ¢ncia": 1444,
      "Ġcontorno": 1445,
      "ordadura": 1446,
      "Ġfuga": 1447,
      "quo": 1448,
      "vas": 1449,
      "ĠemprÃ©stimo": 1450,
      "mentada": 1451,
      "Ġsemica": 1452,
      "Ġsecun": 1453,
      "tural": 1454,
      "ĠimitaÃ§Ã£o": 1455,
      "Ġtessi": 1456,
      "ponto": 1457,
      "vel": 1458,
      "dulaÃ§Ã£o": 1459,
      "ĠbinÃ¡ria": 1460,
      "Ġbordadura": 1461,
      "Ġdobramento": 1462,
      "ĠperÃŃ": 1463,
      "Ġmodos": 1464,
      "ĠmodulaÃ§Ã£o": 1465,
      "Ġclu": 1466,
      "ĠcÃ¢": 1467,
      "ĠclÃŃ": 1468,
      "Ġcampo": 1469,
      "escala": 1470,
      "ĠoblÃŃ": 1471,
      "ĠtonicizaÃ§Ã£o": 1472,
      "Ġescuta": 1473,
      "ĠsuspensÃ£o": 1474,
      "sters": 1475,
      "onia": 1476,
      "Ġclass": 1477,
      "Ġcontratempo": 1478,
      "Ġcontraponto": 1479,
      "Ġmelodia": 1480,
      "Ġquintas": 1481,
      "ĠautÃª": 1482,
      "Ġaumentada": 1483,
      "Ġaproxima": 1484,
      "ĠorquestraÃ§Ã£o": 1485,
      "Ġharmonia": 1486,
      "ĠtransposiÃ§Ã£o": 1487,
      "Ã¢mica": 1488,
      "jatura": 1489,
      "ĠsÃŃnco": 1490,
      "Ġnatural": 1491,
      "Ġsubdomina": 1492,
      "ĠsensÃŃ": 1493,
      "Ġdesenvolvimento": 1494,
      "ĠsequÃªncia": 1495,
      "ĠimprovisaÃ§Ã£o": 1496,
      "Ġpoliacordes": 1497,
      "Ġplaning": 1498,
      "ĠpentatÃ´nica": 1499,
      "Ġfrase": 1500,
      "Ġfraseado": 1501,
      "Ġpolirri": 1502,
      "Ġpolitonal": 1503,
      "tmia": 1504,
      "ĠrondÃ³": 1505,
      "ĠdinÃ¢mica": 1506,
      "Ġapojatura": 1507,
      "Ġarranjo": 1508,
      "Ġoitavas": 1509,
      "Ġretardo": 1510,
      "ĠsemicadÃªncia": 1511,
      "ĠsecundÃ¡ria": 1512,
      "Ġtessitura": 1513,
      "ĠperÃŃodo": 1514,
      "Ġclusters": 1515,
      "ĠcÃ¢none": 1516,
      "ĠclÃŃmax": 1517,
      "ĠoblÃŃquo": 1518,
      "Ġclasses": 1519,
      "ĠautÃªntica": 1520,
      "ĠaproximaÃ§Ã£o": 1521,
      "ĠsÃŃncope": 1522,
      "Ġsubdominante": 1523,
      "ĠsensÃŃvel": 1524,
      "Ġpolirritmia": 1525,
      "Ġpolitonalidade": 1526,
      "50": 1527,
      "56": 1528,
      "57": 1529,
      "58": 1530,
      "59": 1531,
      "60": 1532,
      "67": 1533,
      "68": 1534,
      "69": 1535,
      "70": 1536,
      "78": 1537,
      "79": 1538,
      "80": 1539,
      "89": 1540,
      "90": 1541,
      "22": 1542,
      "33": 1543,
      "44": 1544,
      "55": 1545,
      "66": 1546,
      "77": 1547,
      "88": 1548,
      "99": 1549,
      "laves": 1550,
      "Ã©rie": 1551,
      "Ã©trica": 1552,
      "orma": 1553,
      "Ca": 1554,
      "Fra": 1555,
      "FunÃ§Ã£o": 1556,
      "Forma": 1557,
      "Mo": 1558,
      "TrÃŃade": 1559,
      "ausas": 1560,
      "funÃ§Ã£o": 1561,
      "ntra": 1562,
      "nsonÃ¢ncia": 1563,
      "trÃŃade": 1564,
      "uspensÃ£o": 1565,
      "cadÃªncia": 1566,
      "laning": 1567,
      "scuta": 1568,
      "Ã©tima": 1569,
      "situra": 1570,
      "rvalo": 1571,
      "envolvimento": 1572,
      "forma": 1573,
      "CadÃªncia": 1574,
      "ntratempo": 1575,
      "21": 1576,
      "43": 1577,
      "65": 1578,
      "87": 1579,
      "97": 1580,
      "98": 1581,
      "31": 1582,
      "32": 1583,
      "41": 1584,
      "42": 1585,
      "75": 1586,
      "76": 1587,
      "85": 1588,
      "86": 1589,
      "95": 1590,
      "96": 1591,
      "120": 1592,
      "100": 1593,
      "130": 1594,
      "140": 1595,
      "150": 1596,
      "160": 1597,
      "170": 1598,
      "112": 1599,
      "110": 1600,
      "113": 1601,
      "114": 1602,
      "115": 1603,
      "116": 1604,
      "117": 1605,
      "Claves": 1606,
      "Lig": 1607,
      "MÃ©trica": 1608,
      "So": 1609,
      "SÃ©rie": 1610,
      "Tra": 1611,
      "adura": 1612,
      "claves": 1613,
      "mÃ©trica": 1614,
      "sÃ©rie": 1615,
      "som": 1616,
      "Ligadura": 1617,
      "Som": 1618,
      "Trans": 1619,
      "51": 1620,
      "52": 1621,
      "53": 1622,
      "54": 1623,
      "61": 1624,
      "62": 1625,
      "63": 1626,
      "64": 1627,
      "71": 1628,
      "72": 1629,
      "73": 1630,
      "74": 1631,
      "81": 1632,
      "82": 1633,
      "83": 1634,
      "84": 1635,
      "91": 1636,
      "92": 1637,
      "93": 1638,
      "94": 1639,
      "Acorde": 1640,
      "Acordes": 1641,
      "ArticulaÃ§Ã£o": 1642,
      "AfinaÃ§Ã£o": 1643,
      "Amplitude": 1644,
      "AntecipaÃ§Ã£o": 1645,
      "Ci": 1646,
      "Do": 1647,
      "Des": 1648,
      "Dita": 1649,
      "Emp": 1650,
      "Escuta": 1651,
      "Fuga": 1652,
      "Hemiola": 1653,
      "Inte": 1654,
      "ImitaÃ§Ã£o": 1655,
      "Melo": 1656,
      "Orque": 1657,
      "Po": 1658,
      "Pulso": 1659,
      "Pausas": 1660,
      "Planing": 1661,
      "SentenÃ§a": 1662,
      "SuspensÃ£o": 1663,
      "SÃ©tima": 1664,
      "Tes": 1665,
      "Ton": 1666,
      "acorde": 1667,
      "acordes": 1668,
      "afinaÃ§Ã£o": 1669,
      "amplitude": 1670,
      "antecipaÃ§Ã£o": 1671,
      "escuta": 1672,
      "fuga": 1673,
      "hemiola": 1674,
      "imitaÃ§Ã£o": 1675,
      "pulso": 1676,
      "pausas": 1677,
      "planing": 1678,
      "sentenÃ§a": 1679,
      "suspensÃ£o": 1680,
      "sÃ©tima": 1681,
      "senvolvimento": 1682,
      "comp": 1683,
      "consonÃ¢ncia": 1684,
      "contratempo": 1685,
      "tervalo": 1686,
      "dobramento": 1687,
      "tonicizaÃ§Ã£o": 1688,
      "intervalo": 1689,
      "quintas": 1690,
      "ticulaÃ§Ã£o": 1691,
      "desenvolvimento": 1692,
      "poliacordes": 1693,
      "ditado": 1694,
      "melodia": 1695,
      "ConsonÃ¢ncia": 1696,
      "Contratempo": 1697,
      "emprÃ©stimo": 1698,
      "articulaÃ§Ã£o": 1699,
      "Quintas": 1700,
      "modos": 1701,
      "movimento": 1702,
      "transposiÃ§Ã£o": 1703,
      "Compasso": 1704,
      "tessitura": 1705,
      "frase": 1706,
      "fraseado": 1707,
      "Notas": 1708,
      "notas": 1709,
      "Frase": 1710,
      "Fraseado": 1711,
      "Modos": 1712,
      "Movimento": 1713,
      "TransposiÃ§Ã£o": 1714,
      "Cifras": 1715,
      "Dobramento": 1716,
      "Desenvolvimento": 1717,
      "Ditado": 1718,
      "EmprÃ©stimo": 1719,
      "Intervalo": 1720,
      "Melodia": 1721,
      "OrquestraÃ§Ã£o": 1722,
      "Poliacordes": 1723,
      "Tessitura": 1724,
      "TonicizaÃ§Ã£o": 1725,
      "compasso": 1726,
      "OR": 1727,
      "US": 1728,
      "ĠT": 1729
    },
    "merges": [
      [
        "Ġ",
        "e"
      ],
      [
        "r",
        "e"
      ],
      [
        "c",
        "o"
      ],
      [
        "Ġ",
        "d"
      ],
      [
        "t",
        "e"
      ],
      [
        "£",
        "o"
      ],
      [
        "Ã",
        "£o"
      ],
      [
        "Ġ",
        "p"
      ],
      [
        "Ã",
        "§"
      ],
      [
        "Ġ",
        "co"
      ],
      [
        "r",
        "a"
      ],
      [
        "Ġ",
        "a"
      ],
      [
        "s",
        "t"
      ],
      [
        "Ġd",
        "e"
      ],
      [
        "Ã§",
        "Ã£o"
      ],
      [
        "e",
        "n"
      ],
      [
        "Ġ",
        "o"
      ],
      [
        "e",
        "r"
      ],
      [
        "Ġ",
        "s"
      ],
      [
        "r",
        "o"
      ],
      [
        "c",
        "a"
      ],
      [
        "d",
        "o"
      ],
      [
        "m",
        "a"
      ],
      [
        "Ġ",
        "re"
      ],
      [
        "t",
        "o"
      ],
      [
        "t",
        "a"
      ],
      [
        "r",
        "i"
      ],
      [
        "Ġco",
        "m"
      ],
      [
        "Ġ",
        "u"
      ],
      [
        "d",
        "a"
      ],
      [
        "i",
        "n"
      ],
      [
        "i",
        "s"
      ],
      [
        "Ġ",
        "m"
      ],
      [
        "i",
        "ca"
      ],
      [
        "i",
        "st"
      ],
      [
        "Ġ",
        "<"
      ],
      [
        "c",
        "i"
      ],
      [
        "l",
        "o"
      ],
      [
        "Ġco",
        "n"
      ],
      [
        "o",
        "r"
      ],
      [
        "g",
        "ist"
      ],
      [
        "gist",
        "ro"
      ],
      [
        "Ġ",
        "f"
      ],
      [
        "q",
        "u"
      ],
      [
        "Ġp",
        "a"
      ],
      [
        "v",
        "a"
      ],
      [
        "t",
        "i"
      ],
      [
        "l",
        "a"
      ],
      [
        "Ġe",
        "m"
      ],
      [
        "u",
        "ra"
      ],
      [
        "s",
        "o"
      ],
      [
        "n",
        "te"
      ],
      [
        "r",
        "Ã"
      ],
      [
        "u",
        "n"
      ],
      [
        "qu",
        "e"
      ],
      [
        "Ġe",
        "st"
      ],
      [
        "Ġu",
        "m"
      ],
      [
        "d",
        "e"
      ],
      [
        "m",
        "en"
      ],
      [
        "Ġs",
        "e"
      ],
      [
        "t",
        "ura"
      ],
      [
        "a",
        "l"
      ],
      [
        "Ġe",
        "x"
      ],
      [
        "re",
        "gistro"
      ],
      [
        "s",
        "a"
      ],
      [
        "n",
        "ci"
      ],
      [
        "Ġ",
        "n"
      ],
      [
        "Ġ",
        "i"
      ],
      [
        "Ġcom",
        "p"
      ],
      [
        "s",
        "c"
      ],
      [
        "re",
        "s"
      ],
      [
        "Ġ",
        "te"
      ],
      [
        "n",
        "s"
      ],
      [
        "e",
        "i"
      ],
      [
        "p",
        "o"
      ],
      [
        "Ġ",
        "v"
      ],
      [
        "v",
        "e"
      ],
      [
        "d",
        "u"
      ],
      [
        "c",
        "u"
      ],
      [
        "a",
        "n"
      ],
      [
        "Ã",
        "©"
      ],
      [
        "Ġi",
        "d"
      ],
      [
        "<",
        "/"
      ],
      [
        "Ġu",
        "ma"
      ],
      [
        "Ġo",
        "s"
      ],
      [
        "Ġ",
        "b"
      ],
      [
        "Ã",
        "¡"
      ],
      [
        "e",
        "m"
      ],
      [
        "t",
        "ra"
      ],
      [
        "t",
        "ro"
      ],
      [
        "l",
        "i"
      ],
      [
        "nci",
        "a"
      ],
      [
        "Ġ",
        "ma"
      ],
      [
        "Ã",
        "ª"
      ],
      [
        "f",
        "ica"
      ],
      [
        "Ġd",
        "o"
      ],
      [
        "Ġs",
        "o"
      ],
      [
        "un",
        "Ã§Ã£o"
      ],
      [
        "d",
        "i"
      ],
      [
        "l",
        "e"
      ],
      [
        "Ġo",
        "u"
      ],
      [
        "Ġf",
        "unÃ§Ã£o"
      ],
      [
        "st",
        "a"
      ],
      [
        "Ġp",
        "er"
      ],
      [
        "o",
        "s"
      ],
      [
        "t",
        "re"
      ],
      [
        "Ġcom",
        "o"
      ],
      [
        "Ġp",
        "e"
      ],
      [
        "Ġre",
        "p"
      ],
      [
        "Ġ",
        "que"
      ],
      [
        "Ġm",
        "o"
      ],
      [
        "Ġ",
        "A"
      ],
      [
        "Ġ",
        "c"
      ],
      [
        "o",
        "ta"
      ],
      [
        "Ġn",
        "ota"
      ],
      [
        "Ãª",
        "ncia"
      ],
      [
        "Ġb",
        "a"
      ],
      [
        "Ġf",
        "or"
      ],
      [
        "Ã§",
        "a"
      ],
      [
        "Ġnota",
        "s"
      ],
      [
        "m",
        "i"
      ],
      [
        "n",
        "c"
      ],
      [
        "Ġ",
        "rÃ"
      ],
      [
        "Ġa",
        "l"
      ],
      [
        "Ġre",
        "gistro"
      ],
      [
        "m",
        "e"
      ],
      [
        "u",
        "do"
      ],
      [
        "tre",
        "in"
      ],
      [
        "\"",
        ">"
      ],
      [
        "=",
        "\""
      ],
      [
        "Ġa",
        "s"
      ],
      [
        "ei",
        "to"
      ],
      [
        "cu",
        "r"
      ],
      [
        "trein",
        "o"
      ],
      [
        ".",
        "</"
      ],
      [
        "Ġde",
        "sc"
      ],
      [
        "Ġ<",
        "/"
      ],
      [
        "men",
        "te"
      ],
      [
        "Ġv",
        "er"
      ],
      [
        "du",
        "z"
      ],
      [
        "to",
        "s"
      ],
      [
        "is",
        "e"
      ],
      [
        "Ġ",
        "ca"
      ],
      [
        "i",
        "do"
      ],
      [
        "in",
        "a"
      ],
      [
        "Ġd",
        "i"
      ],
      [
        "e",
        "s"
      ],
      [
        "i",
        "x"
      ],
      [
        "ix",
        "o"
      ],
      [
        "u",
        "i"
      ],
      [
        "co",
        "r"
      ],
      [
        "Ġm",
        "u"
      ],
      [
        "t",
        "ri"
      ],
      [
        "s",
        "sa"
      ],
      [
        "Ġo",
        "b"
      ],
      [
        "Ġ",
        "h"
      ],
      [
        "fica",
        "r"
      ],
      [
        "s",
        "Ã£o"
      ],
      [
        "Ġba",
        "ixo"
      ],
      [
        "o",
        "l"
      ],
      [
        "Ã",
        "´"
      ],
      [
        "Ń",
        "t"
      ],
      [
        "ĠrÃ",
        "Ńt"
      ],
      [
        "Ġ",
        "to"
      ],
      [
        "Ġpa",
        "ra"
      ],
      [
        "da",
        "de"
      ],
      [
        "Ġm",
        "en"
      ],
      [
        "en",
        "te"
      ],
      [
        "te",
        "ra"
      ],
      [
        "C",
        "o"
      ],
      [
        "l",
        "u"
      ],
      [
        "Ġe",
        "sc"
      ],
      [
        "em",
        "p"
      ],
      [
        "po",
        "sta"
      ],
      [
        "g",
        "un"
      ],
      [
        "ti",
        "va"
      ],
      [
        "Ġex",
        "emp"
      ],
      [
        "an",
        "do"
      ],
      [
        "Ġpe",
        "la"
      ],
      [
        "Ġexemp",
        "lo"
      ],
      [
        "a",
        "ra"
      ],
      [
        "r",
        "u"
      ],
      [
        "¢",
        "me"
      ],
      [
        "Ġ",
        "N"
      ],
      [
        "Ġde",
        "ve"
      ],
      [
        "Ġs",
        "er"
      ],
      [
        "ro",
        "duz"
      ],
      [
        "Ġpa",
        "rÃ"
      ],
      [
        "nte",
        "s"
      ],
      [
        "Ġest",
        "ru"
      ],
      [
        "Ġal",
        "tera"
      ],
      [
        "cur",
        "so"
      ],
      [
        "¢me",
        "tro"
      ],
      [
        "ĠparÃ",
        "¢metro"
      ],
      [
        "Ġestru",
        "tura"
      ],
      [
        "Ġ",
        "U"
      ],
      [
        "al",
        "ise"
      ],
      [
        "Ġ",
        "D"
      ],
      [
        "Ã",
        "³"
      ],
      [
        "a",
        "r"
      ],
      [
        "Ġs",
        "u"
      ],
      [
        "m",
        "p"
      ],
      [
        "men",
        "to"
      ],
      [
        "s",
        "te"
      ],
      [
        "o",
        "n"
      ],
      [
        "m",
        "b"
      ],
      [
        "s",
        "i"
      ],
      [
        "Ġfor",
        "ma"
      ],
      [
        "Ġ",
        "in"
      ],
      [
        "a",
        "s"
      ],
      [
        "da",
        "l"
      ],
      [
        "i",
        "or"
      ],
      [
        "Ġma",
        "ior"
      ],
      [
        "Ġ",
        "E"
      ],
      [
        "cor",
        "de"
      ],
      [
        "Ġc",
        "la"
      ],
      [
        "Ġcon",
        "tra"
      ],
      [
        "Ã©",
        "tri"
      ],
      [
        "n",
        "Ã§a"
      ],
      [
        "Ġso",
        "n"
      ],
      [
        "m",
        "ina"
      ],
      [
        "Ġpa",
        "ssa"
      ],
      [
        "µ",
        "es"
      ],
      [
        "Ã",
        "µes"
      ],
      [
        "Ġp",
        "on"
      ],
      [
        "Ġm",
        "e"
      ],
      [
        "Ġ",
        "qu"
      ],
      [
        "Ġ",
        "g"
      ],
      [
        "corde",
        "s"
      ],
      [
        "s",
        "e"
      ],
      [
        "Ġa",
        "u"
      ],
      [
        "Ã´",
        "n"
      ],
      [
        "la",
        "Ã§Ã£o"
      ],
      [
        "v",
        "er"
      ],
      [
        "s",
        "ica"
      ],
      [
        "Ġmu",
        "sica"
      ],
      [
        "u",
        "l"
      ],
      [
        "ri",
        "e"
      ],
      [
        "Ġmen",
        "or"
      ],
      [
        "rÃ",
        "¡"
      ],
      [
        "mi",
        "co"
      ],
      [
        "ĠrÃŃt",
        "mico"
      ],
      [
        "z",
        "a"
      ],
      [
        "r",
        "ti"
      ],
      [
        "Ġs",
        "i"
      ],
      [
        "Ġa",
        "n"
      ],
      [
        "Ġa",
        "p"
      ],
      [
        "Ġm",
        "Ã©tri"
      ],
      [
        "Ġa",
        "cordes"
      ],
      [
        "lo",
        "s"
      ],
      [
        "Ġv",
        "o"
      ],
      [
        "Ġo",
        "r"
      ],
      [
        "Ġcon",
        "du"
      ],
      [
        "ns",
        "i"
      ],
      [
        "Ġcondu",
        "Ã§Ã£o"
      ],
      [
        "Q",
        "u"
      ],
      [
        "gun",
        "ta"
      ],
      [
        "e",
        "c"
      ],
      [
        "e",
        "re"
      ],
      [
        "f",
        "ere"
      ],
      [
        "i",
        "Ã§Ã£o"
      ],
      [
        "n",
        "h"
      ],
      [
        "p",
        "er"
      ],
      [
        "s",
        "er"
      ],
      [
        "Ġ",
        "Qu"
      ],
      [
        "re",
        "en"
      ],
      [
        "co",
        "nte"
      ],
      [
        "co",
        "nc"
      ],
      [
        "en",
        "ti"
      ],
      [
        "Ġre",
        "curso"
      ],
      [
        "ri",
        "ta"
      ],
      [
        "nte",
        "n"
      ],
      [
        "Ġest",
        "udo"
      ],
      [
        "Ġcomp",
        "le"
      ],
      [
        "Ġcomp",
        "reen"
      ],
      [
        "res",
        "posta"
      ],
      [
        "Ġid",
        "enti"
      ],
      [
        "di",
        "tiva"
      ],
      [
        "Ġdi",
        "fere"
      ],
      [
        "Ġob",
        "ser"
      ],
      [
        "Ġau",
        "ditiva"
      ],
      [
        "per",
        "gunta"
      ],
      [
        "ĠQu",
        "ando"
      ],
      [
        "conte",
        "udo"
      ],
      [
        "conc",
        "eito"
      ],
      [
        "Ġcomple",
        "ta"
      ],
      [
        "Ġobser",
        "ve"
      ],
      [
        "a",
        "b"
      ],
      [
        "b",
        "ui"
      ],
      [
        "e",
        "x"
      ],
      [
        "e",
        "ti"
      ],
      [
        "e",
        "po"
      ],
      [
        "f",
        "i"
      ],
      [
        "f",
        "eito"
      ],
      [
        "l",
        "ica"
      ],
      [
        "t",
        "Ã©"
      ],
      [
        "x",
        "tura"
      ],
      [
        "z",
        "e"
      ],
      [
        "Ġ",
        "P"
      ],
      [
        "Ġe",
        "v"
      ],
      [
        "Ġe",
        "feito"
      ],
      [
        "re",
        "va"
      ],
      [
        "Ġd",
        "ist"
      ],
      [
        "Ġd",
        "ura"
      ],
      [
        "Ġp",
        "res"
      ],
      [
        "Ġp",
        "os"
      ],
      [
        "Ġa",
        "va"
      ],
      [
        "en",
        "tos"
      ],
      [
        "er",
        "ci"
      ],
      [
        "er",
        "Ãªncia"
      ],
      [
        "Ġre",
        "so"
      ],
      [
        "ri",
        "os"
      ],
      [
        "ci",
        "o"
      ],
      [
        "Ġest",
        "ab"
      ],
      [
        "Ġex",
        "p"
      ],
      [
        "Ġn",
        "Ã£o"
      ],
      [
        "Ġte",
        "ns"
      ],
      [
        "Ġte",
        "xtura"
      ],
      [
        "Ġver",
        "i"
      ],
      [
        "Ġver",
        "sÃ£o"
      ],
      [
        "lu",
        "Ã§Ã£o"
      ],
      [
        "Ġestrutura",
        "l"
      ],
      [
        "ĠU",
        "ma"
      ],
      [
        "ĠD",
        "epo"
      ],
      [
        "Ġson",
        "o"
      ],
      [
        "Ġidenti",
        "ficar"
      ],
      [
        "ex",
        "erci"
      ],
      [
        "Ġdura",
        "Ã§Ã£o"
      ],
      [
        "Ġava",
        "li"
      ],
      [
        "Ġreso",
        "luÃ§Ã£o"
      ],
      [
        "ĠDepo",
        "is"
      ],
      [
        "exerci",
        "cio"
      ],
      [
        "an",
        "alise"
      ],
      [
        "Ġrep",
        "eti"
      ],
      [
        "Ġrepeti",
        "Ã§Ã£o"
      ],
      [
        "Ã´n",
        "ica"
      ],
      [
        "Ġ",
        "F"
      ],
      [
        "m",
        "o"
      ],
      [
        "Ġ",
        "S"
      ],
      [
        "i",
        "co"
      ],
      [
        "ma",
        "da"
      ],
      [
        "Ġh",
        "o"
      ],
      [
        "Ġte",
        "r"
      ],
      [
        "Ġh",
        "ar"
      ],
      [
        "Ġhar",
        "m"
      ],
      [
        "Ã¡",
        "ri"
      ],
      [
        "Ġb",
        "em"
      ],
      [
        "Ġbem",
        "ol"
      ],
      [
        "Ã",
        "Ń"
      ],
      [
        "Ġmo",
        "dal"
      ],
      [
        "t",
        "u"
      ],
      [
        "u",
        "sa"
      ],
      [
        "o",
        "la"
      ],
      [
        "a",
        "ta"
      ],
      [
        "m",
        "in"
      ],
      [
        "st",
        "ra"
      ],
      [
        "d",
        "Ãªncia"
      ],
      [
        "Ġharm",
        "Ã´nica"
      ],
      [
        "tra",
        "ns"
      ],
      [
        "v",
        "is"
      ],
      [
        "Ġ",
        "trans"
      ],
      [
        "Ã§",
        "Ãµes"
      ],
      [
        "Ġ",
        "va"
      ],
      [
        "Ġde",
        "s"
      ],
      [
        "Ã",
        "¢"
      ],
      [
        "Ġin",
        "te"
      ],
      [
        "f",
        "in"
      ],
      [
        "o",
        "lo"
      ],
      [
        "ra",
        "da"
      ],
      [
        "Ġa",
        "c"
      ],
      [
        "Ġde",
        "fin"
      ],
      [
        "lo",
        "ca"
      ],
      [
        "da",
        "nÃ§a"
      ],
      [
        "ci",
        "a"
      ],
      [
        "Ġou",
        "v"
      ],
      [
        "Ġmu",
        "danÃ§a"
      ],
      [
        "r",
        "va"
      ],
      [
        "te",
        "ri"
      ],
      [
        "m",
        "ica"
      ],
      [
        "l",
        "Ã³"
      ],
      [
        "t",
        "ica"
      ],
      [
        "Ġme",
        "lÃ³"
      ],
      [
        "Ġinte",
        "rva"
      ],
      [
        "as",
        "so"
      ],
      [
        "v",
        "o"
      ],
      [
        "n",
        "Ã¢"
      ],
      [
        "so",
        "nÃ¢"
      ],
      [
        "sonÃ¢",
        "ncia"
      ],
      [
        "Ġcomp",
        "asso"
      ],
      [
        "en",
        "ta"
      ],
      [
        "m",
        "Ã¡"
      ],
      [
        "Ġmusica",
        "l"
      ],
      [
        "j",
        "u"
      ],
      [
        "Ġ",
        "ju"
      ],
      [
        "ul",
        "so"
      ],
      [
        "st",
        "i"
      ],
      [
        "do",
        "s"
      ],
      [
        "a",
        "do"
      ],
      [
        "g",
        "an"
      ],
      [
        "g",
        "em"
      ],
      [
        "v",
        "ol"
      ],
      [
        "Ġe",
        "n"
      ],
      [
        "en",
        "vol"
      ],
      [
        "in",
        "g"
      ],
      [
        "cu",
        "laÃ§Ã£o"
      ],
      [
        "Ġpassa",
        "gem"
      ],
      [
        "se",
        "ado"
      ],
      [
        "za",
        "Ã§Ã£o"
      ],
      [
        "i",
        "g"
      ],
      [
        "i",
        "ta"
      ],
      [
        "rti",
        "culaÃ§Ã£o"
      ],
      [
        "Ġp",
        "ulso"
      ],
      [
        "Ã¡",
        "l"
      ],
      [
        "le",
        "s"
      ],
      [
        "ĠrÃŃt",
        "mica"
      ],
      [
        "mp",
        "les"
      ],
      [
        "Ġsi",
        "mples"
      ],
      [
        "Ġ",
        "ti"
      ],
      [
        "Ġso",
        "m"
      ],
      [
        "mb",
        "re"
      ],
      [
        "ĠmÃ©tri",
        "ca"
      ],
      [
        "Ġti",
        "mbre"
      ],
      [
        "d",
        "ica"
      ],
      [
        "j",
        "a"
      ],
      [
        "Ġs",
        "ÃŃ"
      ],
      [
        "Ġn",
        "a"
      ],
      [
        "Ġal",
        "tura"
      ],
      [
        "Ġsu",
        "b"
      ],
      [
        "Ġpon",
        "to"
      ],
      [
        "ĠmelÃ³",
        "dica"
      ],
      [
        "n",
        "al"
      ],
      [
        "p",
        "e"
      ],
      [
        "z",
        "es"
      ],
      [
        "Ġd",
        "is"
      ],
      [
        "Ġa",
        "rticulaÃ§Ã£o"
      ],
      [
        "Ġde",
        "nsi"
      ],
      [
        "Ġs",
        "en"
      ],
      [
        "do",
        "mina"
      ],
      [
        "ti",
        "vo"
      ],
      [
        "Ġmo",
        "tivo"
      ],
      [
        "Ġvo",
        "zes"
      ],
      [
        "Ġdes",
        "envol"
      ],
      [
        "Ġinterva",
        "los"
      ],
      [
        "Ġdis",
        "sonÃ¢ncia"
      ],
      [
        "Ġdensi",
        "dade"
      ],
      [
        "f",
        "or"
      ],
      [
        "r",
        "que"
      ],
      [
        "Co",
        "mp"
      ],
      [
        "te",
        "s"
      ],
      [
        "Ġ",
        "O"
      ],
      [
        "d",
        "er"
      ],
      [
        "s",
        "posta"
      ],
      [
        "Ġde",
        "co"
      ],
      [
        "Ġre",
        "sposta"
      ],
      [
        "Ġcon",
        "te"
      ],
      [
        "Ġregistro",
        "s"
      ],
      [
        "?",
        "</"
      ],
      [
        "C",
        "rie"
      ],
      [
        "P",
        "ri"
      ],
      [
        "a",
        "re"
      ],
      [
        "a",
        "min"
      ],
      [
        "b",
        "i"
      ],
      [
        "b",
        "re"
      ],
      [
        "b",
        "ul"
      ],
      [
        "c",
        "e"
      ],
      [
        "c",
        "n"
      ],
      [
        "e",
        "cu"
      ],
      [
        "e",
        "le"
      ],
      [
        "e",
        "Ã§a"
      ],
      [
        "e",
        "tiva"
      ],
      [
        "f",
        "erÃªncia"
      ],
      [
        "j",
        "etiva"
      ],
      [
        "m",
        "ei"
      ],
      [
        "o",
        "co"
      ],
      [
        "r",
        "te"
      ],
      [
        "r",
        "mada"
      ],
      [
        "t",
        "Ã³"
      ],
      [
        "u",
        "e"
      ],
      [
        "u",
        "ver"
      ],
      [
        "x",
        "to"
      ],
      [
        "³",
        "tu"
      ],
      [
        "Ġ",
        "l"
      ],
      [
        "Ġ",
        "is"
      ],
      [
        "Ġ",
        "Ã©"
      ],
      [
        "Ġ",
        "cur"
      ],
      [
        "Ġ",
        "tÃ©"
      ],
      [
        "Ġ",
        "loca"
      ],
      [
        "Ġ",
        "Comp"
      ],
      [
        "Ġe",
        "ste"
      ],
      [
        "Ġe",
        "nten"
      ],
      [
        "re",
        "Ã§Ã£o"
      ],
      [
        "co",
        "nh"
      ],
      [
        "Ġp",
        "or"
      ],
      [
        "Ġp",
        "roduz"
      ],
      [
        "Ġp",
        "rÃ¡"
      ],
      [
        "ra",
        "r"
      ],
      [
        "ra",
        "mente"
      ],
      [
        "Ġde",
        "ma"
      ],
      [
        "en",
        "tra"
      ],
      [
        "en",
        "Ã´"
      ],
      [
        "en",
        "as"
      ],
      [
        "er",
        "tÃ³"
      ],
      [
        "Ġs",
        "ido"
      ],
      [
        "ca",
        "bul"
      ],
      [
        "Ġre",
        "la"
      ],
      [
        "Ġre",
        "de"
      ],
      [
        "Ġre",
        "ferÃªncia"
      ],
      [
        "Ġre",
        "conh"
      ],
      [
        "to",
        "ns"
      ],
      [
        "ta",
        "mento"
      ],
      [
        "ri",
        "Ã§Ã£o"
      ],
      [
        "ri",
        "bui"
      ],
      [
        "Ġcom",
        "un"
      ],
      [
        "Ġcom",
        "eÃ§a"
      ],
      [
        "Ġu",
        "so"
      ],
      [
        "Ġcon",
        "sta"
      ],
      [
        "Ġcon",
        "si"
      ],
      [
        "Ġcon",
        "ec"
      ],
      [
        "Ġcon",
        "fi"
      ],
      [
        "or",
        "tamento"
      ],
      [
        "Ġf",
        "oco"
      ],
      [
        "Ġf",
        "enÃ´"
      ],
      [
        "Ġpa",
        "rti"
      ],
      [
        "Ġpa",
        "rte"
      ],
      [
        "Ġest",
        "Ã¡"
      ],
      [
        "de",
        "rada"
      ],
      [
        "men",
        "o"
      ],
      [
        "Ġse",
        "m"
      ],
      [
        "Ġse",
        "u"
      ],
      [
        "Ġse",
        "mi"
      ],
      [
        "Ġex",
        "amin"
      ],
      [
        "Ġex",
        "ecu"
      ],
      [
        "Ġcomp",
        "ara"
      ],
      [
        "Ġcomp",
        "ortamento"
      ],
      [
        "res",
        "enta"
      ],
      [
        "Ġte",
        "nh"
      ],
      [
        "ve",
        "is"
      ],
      [
        "li",
        "que"
      ],
      [
        "li",
        "ze"
      ],
      [
        "Ġma",
        "nten"
      ],
      [
        "Ġma",
        "rque"
      ],
      [
        "fica",
        "Ã§Ã£o"
      ],
      [
        "Ġdo",
        "is"
      ],
      [
        "Ġso",
        "bre"
      ],
      [
        "di",
        "do"
      ],
      [
        "di",
        "vis"
      ],
      [
        "Ġou",
        "tra"
      ],
      [
        "Ġou",
        "tro"
      ],
      [
        "sta",
        "nte"
      ],
      [
        "Ġper",
        "mi"
      ],
      [
        "Ġper",
        "ce"
      ],
      [
        "Ġrep",
        "roduz"
      ],
      [
        "Ġrep",
        "ertÃ³"
      ],
      [
        "Ġrep",
        "resenta"
      ],
      [
        "Ġc",
        "entra"
      ],
      [
        "ĠrÃ",
        "³tu"
      ],
      [
        "Ġdesc",
        "rita"
      ],
      [
        "Ġdesc",
        "riÃ§Ã£o"
      ],
      [
        "Ġca",
        "nte"
      ],
      [
        "Ġdi",
        "reÃ§Ã£o"
      ],
      [
        "Ġob",
        "jetiva"
      ],
      [
        "Ġto",
        "que"
      ],
      [
        "Co",
        "mo"
      ],
      [
        "Ġesc",
        "rita"
      ],
      [
        "Ġesc",
        "reva"
      ],
      [
        "ĠN",
        "a"
      ],
      [
        "ĠN",
        "o"
      ],
      [
        "Ġaltera",
        "do"
      ],
      [
        "ĠparÃ¢metro",
        "s"
      ],
      [
        "Ġsu",
        "a"
      ],
      [
        "mb",
        "olo"
      ],
      [
        "Ġforma",
        "l"
      ],
      [
        "ĠE",
        "ssa"
      ],
      [
        "Ġcla",
        "ramente"
      ],
      [
        "Ġcontra",
        "stante"
      ],
      [
        "Ġqu",
        "ando"
      ],
      [
        "Ġmusica",
        "is"
      ],
      [
        "Ġan",
        "Ã¡l"
      ],
      [
        "Ġap",
        "lica"
      ],
      [
        "Ġap",
        "enas"
      ],
      [
        "Ġvo",
        "cabul"
      ],
      [
        "ec",
        "er"
      ],
      [
        "Ġcompreen",
        "sÃ£o"
      ],
      [
        "Ġcompreen",
        "dido"
      ],
      [
        "Ġdifere",
        "ntes"
      ],
      [
        "Ġdifere",
        "nÃ§a"
      ],
      [
        "ĠP",
        "ara"
      ],
      [
        "Ġev",
        "ita"
      ],
      [
        "Ġdist",
        "ribui"
      ],
      [
        "Ġpres",
        "ente"
      ],
      [
        "Ġpos",
        "iÃ§Ã£o"
      ],
      [
        "Ġestab",
        "ele"
      ],
      [
        "Ġexp",
        "lique"
      ],
      [
        "Ġtens",
        "Ãµes"
      ],
      [
        "Ġveri",
        "ficaÃ§Ã£o"
      ],
      [
        "Ġestrutural",
        "mente"
      ],
      [
        "Ġsono",
        "ro"
      ],
      [
        "Ġho",
        "uver"
      ],
      [
        "Ġter",
        "mina"
      ],
      [
        "Ã¡ri",
        "o"
      ],
      [
        "ola",
        "da"
      ],
      [
        "Ġtrans",
        "for"
      ],
      [
        "Ġac",
        "entos"
      ],
      [
        "Ġdefin",
        "iÃ§Ã£o"
      ],
      [
        "Ġju",
        "sti"
      ],
      [
        "ĠsÃŃ",
        "mbolo"
      ],
      [
        "Ġsub",
        "divis"
      ],
      [
        "Ġdeco",
        "rar"
      ],
      [
        "Ġconte",
        "xto"
      ],
      [
        "Pri",
        "mei"
      ],
      [
        "bi",
        "da"
      ],
      [
        "cn",
        "ico"
      ],
      [
        "Ġis",
        "olada"
      ],
      [
        "Ġcur",
        "to"
      ],
      [
        "ĠtÃ©",
        "cnico"
      ],
      [
        "Ġloca",
        "lize"
      ],
      [
        "ĠComp",
        "are"
      ],
      [
        "Ġeste",
        "ja"
      ],
      [
        "Ġenten",
        "der"
      ],
      [
        "Ġproduz",
        "ido"
      ],
      [
        "ĠprÃ¡",
        "tica"
      ],
      [
        "Ġdema",
        "is"
      ],
      [
        "Ġrela",
        "Ã§Ãµes"
      ],
      [
        "Ġreconh",
        "ecer"
      ],
      [
        "Ġcomun",
        "s"
      ],
      [
        "Ġconsta",
        "ntes"
      ],
      [
        "Ġconsi",
        "derada"
      ],
      [
        "Ġconec",
        "ta"
      ],
      [
        "Ġconfi",
        "rmada"
      ],
      [
        "ĠfenÃ´",
        "meno"
      ],
      [
        "Ġparti",
        "tura"
      ],
      [
        "ĠestÃ¡",
        "veis"
      ],
      [
        "Ġsemi",
        "tons"
      ],
      [
        "Ġexamin",
        "e"
      ],
      [
        "Ġexecu",
        "te"
      ],
      [
        "Ġcompara",
        "Ã§Ã£o"
      ],
      [
        "Ġtenh",
        "a"
      ],
      [
        "Ġmanten",
        "do"
      ],
      [
        "Ġpermi",
        "te"
      ],
      [
        "Ġperce",
        "bida"
      ],
      [
        "Ġreproduz",
        "i"
      ],
      [
        "ĠrepertÃ³",
        "rios"
      ],
      [
        "Ġrepresenta",
        "Ã§Ã£o"
      ],
      [
        "Ġcentra",
        "do"
      ],
      [
        "ĠrÃ³tu",
        "los"
      ],
      [
        "ĠanÃ¡l",
        "ise"
      ],
      [
        "Ġaplica",
        "Ã§Ã£o"
      ],
      [
        "Ġvocabul",
        "Ã¡rio"
      ],
      [
        "Ġdistribui",
        "Ã§Ã£o"
      ],
      [
        "Ġestabele",
        "Ã§a"
      ],
      [
        "Ġtransfor",
        "mÃ¡"
      ],
      [
        "Ġjusti",
        "ficar"
      ],
      [
        "Ġsubdivis",
        "Ã£o"
      ],
      [
        "Primei",
        "ro"
      ],
      [
        "I",
        "nc"
      ],
      [
        "a",
        "men"
      ],
      [
        "a",
        "tro"
      ],
      [
        "b",
        "al"
      ],
      [
        "g",
        "res"
      ],
      [
        "g",
        "ui"
      ],
      [
        "h",
        "e"
      ],
      [
        "i",
        "to"
      ],
      [
        "i",
        "lo"
      ],
      [
        "i",
        "li"
      ],
      [
        "i",
        "ze"
      ],
      [
        "i",
        "cia"
      ],
      [
        "i",
        "zaÃ§Ã£o"
      ],
      [
        "l",
        "Ãª"
      ],
      [
        "l",
        "he"
      ],
      [
        "n",
        "do"
      ],
      [
        "n",
        "Ãªncia"
      ],
      [
        "n",
        "amen"
      ],
      [
        "p",
        "al"
      ],
      [
        "p",
        "res"
      ],
      [
        "p",
        "ara"
      ],
      [
        "s",
        "is"
      ],
      [
        "u",
        "ma"
      ],
      [
        "u",
        "so"
      ],
      [
        "v",
        "en"
      ],
      [
        "Ã",
        "ł"
      ],
      [
        "Ġ",
        "Inc"
      ],
      [
        "Ġ",
        "Ãł"
      ],
      [
        "re",
        "ver"
      ],
      [
        "re",
        "za"
      ],
      [
        "re",
        "domina"
      ],
      [
        "re",
        "ven"
      ],
      [
        "co",
        "s"
      ],
      [
        "te",
        "nte"
      ],
      [
        "te",
        "nc"
      ],
      [
        "Ġp",
        "ro"
      ],
      [
        "Ġp",
        "ri"
      ],
      [
        "Ġp",
        "redomina"
      ],
      [
        "Ġco",
        "in"
      ],
      [
        "Ġco",
        "le"
      ],
      [
        "Ġco",
        "erÃªncia"
      ],
      [
        "st",
        "ina"
      ],
      [
        "Ġde",
        "ta"
      ],
      [
        "Ġde",
        "cor"
      ],
      [
        "Ġde",
        "stina"
      ],
      [
        "Ġo",
        "ito"
      ],
      [
        "ma",
        "nÃªncia"
      ],
      [
        "Ġre",
        "po"
      ],
      [
        "Ġre",
        "laÃ§Ã£o"
      ],
      [
        "ri",
        "tÃ©"
      ],
      [
        "Ġu",
        "sa"
      ],
      [
        "in",
        "al"
      ],
      [
        "ci",
        "dÃªncia"
      ],
      [
        "lo",
        "bal"
      ],
      [
        "Ġcon",
        "duz"
      ],
      [
        "Ġcon",
        "tri"
      ],
      [
        "Ġcon",
        "sis"
      ],
      [
        "Ġpa",
        "pe"
      ],
      [
        "va",
        "mente"
      ],
      [
        "Ġest",
        "ilo"
      ],
      [
        "de",
        "re"
      ],
      [
        "Ġse",
        "gun"
      ],
      [
        "Ġse",
        "gui"
      ],
      [
        "Ġse",
        "para"
      ],
      [
        "Ġex",
        "ig"
      ],
      [
        "sa",
        "Ã§Ã£o"
      ],
      [
        "nci",
        "o"
      ],
      [
        "nci",
        "pal"
      ],
      [
        "Ġi",
        "me"
      ],
      [
        "ei",
        "tura"
      ],
      [
        "Ġma",
        "teri"
      ],
      [
        "Ġso",
        "mente"
      ],
      [
        "di",
        "ata"
      ],
      [
        "Ġper",
        "curso"
      ],
      [
        "Ġper",
        "tenc"
      ],
      [
        "Ġper",
        "manÃªncia"
      ],
      [
        "Ġpe",
        "lo"
      ],
      [
        "Ġpe",
        "dal"
      ],
      [
        "Ġmo",
        "mento"
      ],
      [
        "Ġmo",
        "stra"
      ],
      [
        "ĠA",
        "pres"
      ],
      [
        "Ġc",
        "ritÃ©"
      ],
      [
        "Ġba",
        "seado"
      ],
      [
        "Ġfor",
        "tes"
      ],
      [
        "Ġdesc",
        "reva"
      ],
      [
        "Ġdesc",
        "reven"
      ],
      [
        "Ġca",
        "da"
      ],
      [
        "Ġca",
        "usa"
      ],
      [
        "Ġto",
        "da"
      ],
      [
        "Ġto",
        "nal"
      ],
      [
        "Ġmen",
        "os"
      ],
      [
        "ente",
        "s"
      ],
      [
        "Co",
        "nsi"
      ],
      [
        "lu",
        "a"
      ],
      [
        "Ġesc",
        "rever"
      ],
      [
        "ĠN",
        "Ã£o"
      ],
      [
        "roduz",
        "a"
      ],
      [
        "Ġaltera",
        "ndo"
      ],
      [
        "Ġestrutura",
        "is"
      ],
      [
        "ĠU",
        "se"
      ],
      [
        "si",
        "vamente"
      ],
      [
        "Ġin",
        "icia"
      ],
      [
        "ĠE",
        "m"
      ],
      [
        "Ġcla",
        "reza"
      ],
      [
        "Ġcontra",
        "ste"
      ],
      [
        "Ġpon",
        "tos"
      ],
      [
        "Ġme",
        "ra"
      ],
      [
        "Ġqu",
        "atro"
      ],
      [
        "Ġg",
        "rÃ¡"
      ],
      [
        "Ġg",
        "lobal"
      ],
      [
        "rie",
        "dade"
      ],
      [
        "Ġsi",
        "lÃª"
      ],
      [
        "Ġan",
        "alise"
      ],
      [
        "ĠmÃ©tri",
        "cos"
      ],
      [
        "Ġor",
        "gan"
      ],
      [
        "Ġor",
        "namen"
      ],
      [
        "fi",
        "que"
      ],
      [
        "lica",
        "r"
      ],
      [
        "ĠP",
        "roduza"
      ],
      [
        "Ġev",
        "entos"
      ],
      [
        "Ġdist",
        "ing"
      ],
      [
        "Ġpres",
        "uma"
      ],
      [
        "Ġpos",
        "sa"
      ],
      [
        "Ġestab",
        "ili"
      ],
      [
        "Ġexp",
        "licar"
      ],
      [
        "Ġtens",
        "Ã£o"
      ],
      [
        "Ġveri",
        "fique"
      ],
      [
        "Ġsono",
        "ra"
      ],
      [
        "Ġavali",
        "e"
      ],
      [
        "Ġavali",
        "ar"
      ],
      [
        "ĠF",
        "inal"
      ],
      [
        "Ġva",
        "riedade"
      ],
      [
        "Ġouv",
        "ido"
      ],
      [
        "Ġen",
        "tre"
      ],
      [
        "Ġsen",
        "saÃ§Ã£o"
      ],
      [
        "Ġdesenvol",
        "va"
      ],
      [
        "Ġl",
        "eitura"
      ],
      [
        "gres",
        "sivamente"
      ],
      [
        "ĠInc",
        "lua"
      ],
      [
        "Ġpro",
        "gressivamente"
      ],
      [
        "Ġpri",
        "ncipal"
      ],
      [
        "Ġpredomina",
        "ntes"
      ],
      [
        "Ġcoin",
        "cidÃªncia"
      ],
      [
        "Ġcole",
        "Ã§Ã£o"
      ],
      [
        "Ġdeta",
        "lhe"
      ],
      [
        "Ġdecor",
        "re"
      ],
      [
        "Ġdestina",
        "do"
      ],
      [
        "Ġrepo",
        "uso"
      ],
      [
        "Ġusa",
        "dos"
      ],
      [
        "Ġcontri",
        "bui"
      ],
      [
        "Ġconsis",
        "tente"
      ],
      [
        "Ġpape",
        "l"
      ],
      [
        "Ġsegun",
        "da"
      ],
      [
        "Ġsegui",
        "da"
      ],
      [
        "Ġsepara",
        "r"
      ],
      [
        "Ġexig",
        "e"
      ],
      [
        "Ġime",
        "diata"
      ],
      [
        "Ġmateri",
        "al"
      ],
      [
        "Ġpertenc",
        "entes"
      ],
      [
        "ĠApres",
        "ente"
      ],
      [
        "ĠcritÃ©",
        "rios"
      ],
      [
        "Ġdescreven",
        "do"
      ],
      [
        "Consi",
        "dere"
      ],
      [
        "ĠgrÃ¡",
        "fica"
      ],
      [
        "ĠsilÃª",
        "ncio"
      ],
      [
        "Ġorgan",
        "izaÃ§Ã£o"
      ],
      [
        "Ġornamen",
        "tos"
      ],
      [
        "Ġdisting",
        "ue"
      ],
      [
        "Ġestabili",
        "dade"
      ],
      [
        "ĠFinal",
        "ize"
      ],
      [
        "ĠS",
        "i"
      ],
      [
        "L",
        "Ã¡"
      ],
      [
        "Ġ",
        "LÃ¡"
      ],
      [
        "1",
        "2"
      ],
      [
        "ĠS",
        "ol"
      ],
      [
        "ĠD",
        "Ã³"
      ],
      [
        "n",
        "ido"
      ],
      [
        "Ġsu",
        "ste"
      ],
      [
        "Ġsuste",
        "nido"
      ],
      [
        "da",
        "s"
      ],
      [
        "f",
        "Ã´nica"
      ],
      [
        "Ġ",
        "5"
      ],
      [
        "Ġ",
        "12"
      ],
      [
        "Ġca",
        "mada"
      ],
      [
        "mo",
        "fÃ´nica"
      ],
      [
        "Ġho",
        "mofÃ´nica"
      ],
      [
        "Ġcamada",
        "s"
      ],
      [
        "ca",
        "la"
      ],
      [
        "s",
        "cala"
      ],
      [
        "a",
        "das"
      ],
      [
        "i",
        "r"
      ],
      [
        "Ġ",
        "tro"
      ],
      [
        "c",
        "h"
      ],
      [
        "l",
        "ch"
      ],
      [
        "Ġco",
        "lch"
      ],
      [
        "Ã¡ri",
        "a"
      ],
      [
        "Ġcolch",
        "ei"
      ],
      [
        "Ġe",
        "scala"
      ],
      [
        "Ġ",
        "C"
      ],
      [
        "ĠA",
        "b"
      ],
      [
        "ĠD",
        "b"
      ],
      [
        "1",
        "0"
      ],
      [
        "1",
        "3"
      ],
      [
        "1",
        "4"
      ],
      [
        "1",
        "5"
      ],
      [
        "1",
        "6"
      ],
      [
        "Ġ",
        "M"
      ],
      [
        "Ġ",
        "t"
      ],
      [
        "ĠF",
        "Ã¡"
      ],
      [
        "ĠM",
        "i"
      ],
      [
        "usa",
        "s"
      ],
      [
        "i",
        "ola"
      ],
      [
        "n",
        "Ã¡ria"
      ],
      [
        "em",
        "iola"
      ],
      [
        "Ġson",
        "ata"
      ],
      [
        "Ġter",
        "nÃ¡ria"
      ],
      [
        "stra",
        "Ã§Ã£o"
      ],
      [
        "a",
        "de"
      ],
      [
        "Ń",
        "ade"
      ],
      [
        "rÃ",
        "Ńade"
      ],
      [
        "li",
        "a"
      ],
      [
        "Ġdi",
        "min"
      ],
      [
        "que",
        "straÃ§Ã£o"
      ],
      [
        "1",
        "7"
      ],
      [
        "Ġpa",
        "usas"
      ],
      [
        "mp",
        "e"
      ],
      [
        "a",
        "Ã§Ãµes"
      ],
      [
        "r",
        "ra"
      ],
      [
        "s",
        "si"
      ],
      [
        "ro",
        "vis"
      ],
      [
        "ri",
        "aÃ§Ãµes"
      ],
      [
        "Ġse",
        "qu"
      ],
      [
        "Ġi",
        "mp"
      ],
      [
        "Ġte",
        "ma"
      ],
      [
        "Ġh",
        "emiola"
      ],
      [
        "on",
        "e"
      ],
      [
        "Ġva",
        "riaÃ§Ãµes"
      ],
      [
        "Ġimp",
        "rovis"
      ],
      [
        "i",
        "mento"
      ],
      [
        "v",
        "imento"
      ],
      [
        "Ġdo",
        "mina"
      ],
      [
        "Ã´n",
        "ico"
      ],
      [
        "Ġdomina",
        "nte"
      ],
      [
        "R",
        "Ã©"
      ],
      [
        "Ġ",
        "RÃ©"
      ],
      [
        "e",
        "lo"
      ],
      [
        "or",
        "questraÃ§Ã£o"
      ],
      [
        "Ġt",
        "rÃŃade"
      ],
      [
        "Ã",
        "º"
      ],
      [
        "a",
        "g"
      ],
      [
        "a",
        "ixo"
      ],
      [
        "b",
        "aixo"
      ],
      [
        "g",
        "rada"
      ],
      [
        "i",
        "olo"
      ],
      [
        "l",
        "Ã©tri"
      ],
      [
        "o",
        "te"
      ],
      [
        "o",
        "Ã©"
      ],
      [
        "p",
        "or"
      ],
      [
        "p",
        "adas"
      ],
      [
        "³",
        "fica"
      ],
      [
        "Ġe",
        "lÃ©tri"
      ],
      [
        "co",
        "padas"
      ],
      [
        "st",
        "ico"
      ],
      [
        "en",
        "cia"
      ],
      [
        "Ġs",
        "in"
      ],
      [
        "Ġs",
        "Ã©"
      ],
      [
        "Ġre",
        "tro"
      ],
      [
        "Ġre",
        "orquestraÃ§Ã£o"
      ],
      [
        "ta",
        "rra"
      ],
      [
        "ri",
        "mb"
      ],
      [
        "Ġf",
        "ag"
      ],
      [
        "rÃ",
        "³fica"
      ],
      [
        "Ġest",
        "rÃ³fica"
      ],
      [
        "Ġv",
        "iolo"
      ],
      [
        "Ġma",
        "rimb"
      ],
      [
        "nc",
        "elo"
      ],
      [
        "ui",
        "tarra"
      ],
      [
        "Ġob",
        "oÃ©"
      ],
      [
        "mb",
        "one"
      ],
      [
        "Ġcla",
        "ssi"
      ],
      [
        "Ġcontra",
        "baixo"
      ],
      [
        "Ġpon",
        "tu"
      ],
      [
        "Ġg",
        "uitarra"
      ],
      [
        "Ġtrans",
        "por"
      ],
      [
        "Ġdes",
        "loca"
      ],
      [
        "Ġac",
        "Ãº"
      ],
      [
        "Ġdefin",
        "ir"
      ],
      [
        "Ġouv",
        "ir"
      ],
      [
        "Ġtro",
        "mpe"
      ],
      [
        "Ġtro",
        "mbone"
      ],
      [
        "Ġcolchei",
        "as"
      ],
      [
        "Ġsequ",
        "encia"
      ],
      [
        "Ġhemiola",
        "s"
      ],
      [
        "Ġimprovis",
        "ar"
      ],
      [
        "grada",
        "Ã§Ã£o"
      ],
      [
        "ĠelÃ©tri",
        "co"
      ],
      [
        "Ġsin",
        "copadas"
      ],
      [
        "Ġretro",
        "gradaÃ§Ã£o"
      ],
      [
        "Ġfag",
        "ote"
      ],
      [
        "Ġviolo",
        "ncelo"
      ],
      [
        "Ġmarimb",
        "a"
      ],
      [
        "Ġclassi",
        "ficar"
      ],
      [
        "Ġpontu",
        "adas"
      ],
      [
        "Ġdesloca",
        "das"
      ],
      [
        "ĠacÃº",
        "stico"
      ],
      [
        "Ġtrompe",
        "te"
      ],
      [
        "Ġsequencia",
        "mento"
      ],
      [
        "c",
        "ina"
      ],
      [
        "g",
        "lia"
      ],
      [
        "ca",
        "glia"
      ],
      [
        "Ġba",
        "teri"
      ],
      [
        "ui",
        "Ã§Ã£o"
      ],
      [
        "Ġpassa",
        "caglia"
      ],
      [
        "Ġter",
        "cina"
      ],
      [
        "Ġcolchei",
        "a"
      ],
      [
        "Ġdimin",
        "uiÃ§Ã£o"
      ],
      [
        "Ġbateri",
        "a"
      ],
      [
        "Ġtercina",
        "s"
      ],
      [
        "u",
        "ta"
      ],
      [
        "ti",
        "ma"
      ],
      [
        "g",
        "a"
      ],
      [
        "Ġp",
        "o"
      ],
      [
        "Ġca",
        "dÃªncia"
      ],
      [
        "d",
        "ura"
      ],
      [
        "ra",
        "mento"
      ],
      [
        "a",
        "Ã§Ã£o"
      ],
      [
        "m",
        "po"
      ],
      [
        "Ġp",
        "la"
      ],
      [
        "la",
        "s"
      ],
      [
        "le",
        "las"
      ],
      [
        "Ġpara",
        "lelas"
      ],
      [
        "Ġharm",
        "Ã´nico"
      ],
      [
        "ĠsÃ©",
        "tima"
      ],
      [
        "f",
        "ra"
      ],
      [
        "ta",
        "do"
      ],
      [
        "1",
        "1"
      ],
      [
        "Ġp",
        "enta"
      ],
      [
        "l",
        "ÃŃ"
      ],
      [
        "Ġa",
        "corde"
      ],
      [
        "ro",
        "mÃ¡"
      ],
      [
        "Ġf",
        "ra"
      ],
      [
        "di",
        "co"
      ],
      [
        "Ġmo",
        "vimento"
      ],
      [
        "Ġc",
        "romÃ¡"
      ],
      [
        "Ġdi",
        "tado"
      ],
      [
        "Ġin",
        "ver"
      ],
      [
        "ĠmelÃ³",
        "dico"
      ],
      [
        "Ġinterva",
        "lo"
      ],
      [
        "Ġpo",
        "li"
      ],
      [
        "ĠcromÃ¡",
        "tica"
      ],
      [
        "Ġinver",
        "sÃ£o"
      ],
      [
        "ve",
        "s"
      ],
      [
        "f",
        "ina"
      ],
      [
        "li",
        "tu"
      ],
      [
        "mp",
        "litu"
      ],
      [
        "Ġju",
        "sta"
      ],
      [
        "fina",
        "Ã§Ã£o"
      ],
      [
        "mplitu",
        "de"
      ],
      [
        "o",
        "st"
      ],
      [
        "Ġcomp",
        "ost"
      ],
      [
        "Ġcompost",
        "o"
      ],
      [
        "a",
        "t"
      ],
      [
        "b",
        "ramento"
      ],
      [
        "g",
        "al"
      ],
      [
        "i",
        "ro"
      ],
      [
        "i",
        "ci"
      ],
      [
        "n",
        "ing"
      ],
      [
        "o",
        "sa"
      ],
      [
        "p",
        "en"
      ],
      [
        "p",
        "aÃ§Ã£o"
      ],
      [
        "s",
        "pen"
      ],
      [
        "t",
        "rÃ¡"
      ],
      [
        "t",
        "ÃŃ"
      ],
      [
        "u",
        "m"
      ],
      [
        "u",
        "ga"
      ],
      [
        "v",
        "ico"
      ],
      [
        "©",
        "sti"
      ],
      [
        "te",
        "mpo"
      ],
      [
        "ta",
        "s"
      ],
      [
        "ta",
        "Ã§Ã£o"
      ],
      [
        "ta",
        "is"
      ],
      [
        "ri",
        "o"
      ],
      [
        "Ġcom",
        "um"
      ],
      [
        "in",
        "tas"
      ],
      [
        "ci",
        "paÃ§Ã£o"
      ],
      [
        "Ġcon",
        "trÃ¡"
      ],
      [
        "nte",
        "cipaÃ§Ã£o"
      ],
      [
        "rÃ",
        "©sti"
      ],
      [
        "po",
        "si"
      ],
      [
        "di",
        "a"
      ],
      [
        "Ġmo",
        "tÃŃ"
      ],
      [
        "mi",
        "taÃ§Ã£o"
      ],
      [
        "Ġal",
        "vo"
      ],
      [
        "Ġdi",
        "at"
      ],
      [
        "Ġto",
        "ns"
      ],
      [
        "ente",
        "nÃ§a"
      ],
      [
        "ar",
        "tais"
      ],
      [
        "Ġqu",
        "artais"
      ],
      [
        "Ġinte",
        "iro"
      ],
      [
        "gan",
        "osa"
      ],
      [
        "Ġen",
        "ganosa"
      ],
      [
        "Ġt",
        "Ã´nica"
      ],
      [
        "lia",
        "cordes"
      ],
      [
        "Ġdimin",
        "uta"
      ],
      [
        "Ã´nico",
        "s"
      ],
      [
        "Ġpla",
        "gal"
      ],
      [
        "fra",
        "s"
      ],
      [
        "ici",
        "zaÃ§Ã£o"
      ],
      [
        "spen",
        "sÃ£o"
      ],
      [
        "ĠcontrÃ¡",
        "rio"
      ],
      [
        "rÃ©sti",
        "mo"
      ],
      [
        "posi",
        "Ã§Ã£o"
      ],
      [
        "ĠmotÃŃ",
        "vico"
      ],
      [
        "Ġdiat",
        "Ã´nicos"
      ],
      [
        "Ġinteiro",
        "s"
      ],
      [
        "li",
        "ga"
      ],
      [
        "liga",
        "dura"
      ],
      [
        "n",
        "icizaÃ§Ã£o"
      ],
      [
        "ci",
        "fras"
      ],
      [
        "lo",
        "dia"
      ],
      [
        "1",
        "8"
      ],
      [
        "1",
        "9"
      ],
      [
        "g",
        "u"
      ],
      [
        "2",
        "0"
      ],
      [
        "2",
        "3"
      ],
      [
        "2",
        "4"
      ],
      [
        "2",
        "5"
      ],
      [
        "2",
        "6"
      ],
      [
        "2",
        "7"
      ],
      [
        "2",
        "8"
      ],
      [
        "2",
        "9"
      ],
      [
        "i",
        "Ã¡l"
      ],
      [
        "re",
        "qu"
      ],
      [
        "Ġa",
        "finaÃ§Ã£o"
      ],
      [
        "Ġa",
        "mplitude"
      ],
      [
        "Ġf",
        "ig"
      ],
      [
        "Ġf",
        "requ"
      ],
      [
        "ura",
        "s"
      ],
      [
        "Ġi",
        "gu"
      ],
      [
        "Ġte",
        "mpe"
      ],
      [
        "Ġqu",
        "iÃ¡l"
      ],
      [
        "ĠrÃŃtmica",
        "s"
      ],
      [
        "Ġfig",
        "uras"
      ],
      [
        "Ġfrequ",
        "Ãªncia"
      ],
      [
        "Ġigu",
        "al"
      ],
      [
        "Ġtempe",
        "ramento"
      ],
      [
        "ĠquiÃ¡l",
        "tera"
      ],
      [
        "3",
        "0"
      ],
      [
        "3",
        "4"
      ],
      [
        "3",
        "5"
      ],
      [
        "3",
        "6"
      ],
      [
        "3",
        "7"
      ],
      [
        "3",
        "8"
      ],
      [
        "3",
        "9"
      ],
      [
        "g",
        "ra"
      ],
      [
        "Ġ",
        "ligadura"
      ],
      [
        "da",
        "mento"
      ],
      [
        "Ġn",
        "o"
      ],
      [
        "Ġnota",
        "Ã§Ã£o"
      ],
      [
        "Ġcla",
        "ves"
      ],
      [
        "Ġau",
        "mento"
      ],
      [
        "Ġan",
        "damento"
      ],
      [
        "ĠsÃ©",
        "rie"
      ],
      [
        "Ġpenta",
        "gra"
      ],
      [
        "Ġpentagra",
        "ma"
      ],
      [
        "4",
        "0"
      ],
      [
        "4",
        "5"
      ],
      [
        "4",
        "6"
      ],
      [
        "4",
        "7"
      ],
      [
        "4",
        "8"
      ],
      [
        "4",
        "9"
      ],
      [
        "E",
        "scala"
      ],
      [
        "N",
        "ota"
      ],
      [
        "c",
        "un"
      ],
      [
        "d",
        "Ã³"
      ],
      [
        "d",
        "Ã¡ria"
      ],
      [
        "i",
        "a"
      ],
      [
        "i",
        "ma"
      ],
      [
        "i",
        "dade"
      ],
      [
        "j",
        "o"
      ],
      [
        "n",
        "o"
      ],
      [
        "n",
        "co"
      ],
      [
        "n",
        "to"
      ],
      [
        "n",
        "ota"
      ],
      [
        "n",
        "tica"
      ],
      [
        "n",
        "one"
      ],
      [
        "n",
        "dÃ³"
      ],
      [
        "n",
        "jo"
      ],
      [
        "o",
        "do"
      ],
      [
        "p",
        "rÃ©stimo"
      ],
      [
        "r",
        "s"
      ],
      [
        "r",
        "do"
      ],
      [
        "r",
        "ri"
      ],
      [
        "r",
        "no"
      ],
      [
        "s",
        "s"
      ],
      [
        "s",
        "ÃŃ"
      ],
      [
        "t",
        "Ãª"
      ],
      [
        "t",
        "mi"
      ],
      [
        "t",
        "Ã´nica"
      ],
      [
        "x",
        "ima"
      ],
      [
        "Ġ",
        "ro"
      ],
      [
        "Ġ",
        "cifras"
      ],
      [
        "Ġd",
        "in"
      ],
      [
        "Ġa",
        "po"
      ],
      [
        "Ġa",
        "rra"
      ],
      [
        "Ġa",
        "ntecipaÃ§Ã£o"
      ],
      [
        "Ġo",
        "ita"
      ],
      [
        "Ġs",
        "entenÃ§a"
      ],
      [
        "ro",
        "xima"
      ],
      [
        "ma",
        "x"
      ],
      [
        "Ġre",
        "ta"
      ],
      [
        "to",
        "nal"
      ],
      [
        "to",
        "rno"
      ],
      [
        "ta",
        "da"
      ],
      [
        "da",
        "dura"
      ],
      [
        "in",
        "Ã¡ria"
      ],
      [
        "Ġcon",
        "sonÃ¢ncia"
      ],
      [
        "Ġcon",
        "torno"
      ],
      [
        "or",
        "dadura"
      ],
      [
        "Ġf",
        "uga"
      ],
      [
        "qu",
        "o"
      ],
      [
        "va",
        "s"
      ],
      [
        "Ġem",
        "prÃ©stimo"
      ],
      [
        "men",
        "tada"
      ],
      [
        "Ġse",
        "mica"
      ],
      [
        "Ġse",
        "cun"
      ],
      [
        "tura",
        "l"
      ],
      [
        "Ġi",
        "mitaÃ§Ã£o"
      ],
      [
        "Ġte",
        "ssi"
      ],
      [
        "po",
        "nto"
      ],
      [
        "ve",
        "l"
      ],
      [
        "du",
        "laÃ§Ã£o"
      ],
      [
        "Ġb",
        "inÃ¡ria"
      ],
      [
        "Ġb",
        "ordadura"
      ],
      [
        "Ġdo",
        "bramento"
      ],
      [
        "Ġper",
        "ÃŃ"
      ],
      [
        "Ġmo",
        "dos"
      ],
      [
        "Ġmo",
        "dulaÃ§Ã£o"
      ],
      [
        "Ġc",
        "lu"
      ],
      [
        "Ġc",
        "Ã¢"
      ],
      [
        "Ġc",
        "lÃŃ"
      ],
      [
        "Ġca",
        "mpo"
      ],
      [
        "es",
        "cala"
      ],
      [
        "Ġob",
        "lÃŃ"
      ],
      [
        "Ġto",
        "nicizaÃ§Ã£o"
      ],
      [
        "Ġesc",
        "uta"
      ],
      [
        "Ġsu",
        "spensÃ£o"
      ],
      [
        "ste",
        "rs"
      ],
      [
        "on",
        "ia"
      ],
      [
        "Ġcla",
        "ss"
      ],
      [
        "Ġcontra",
        "tempo"
      ],
      [
        "Ġcontra",
        "ponto"
      ],
      [
        "Ġme",
        "lodia"
      ],
      [
        "Ġqu",
        "intas"
      ],
      [
        "Ġau",
        "tÃª"
      ],
      [
        "Ġau",
        "mentada"
      ],
      [
        "Ġap",
        "roxima"
      ],
      [
        "Ġor",
        "questraÃ§Ã£o"
      ],
      [
        "Ġharm",
        "onia"
      ],
      [
        "Ġtrans",
        "posiÃ§Ã£o"
      ],
      [
        "Ã¢",
        "mica"
      ],
      [
        "ja",
        "tura"
      ],
      [
        "ĠsÃŃ",
        "nco"
      ],
      [
        "Ġna",
        "tural"
      ],
      [
        "Ġsub",
        "domina"
      ],
      [
        "Ġsen",
        "sÃŃ"
      ],
      [
        "Ġdesenvol",
        "vimento"
      ],
      [
        "Ġsequ",
        "Ãªncia"
      ],
      [
        "Ġimprovis",
        "aÃ§Ã£o"
      ],
      [
        "Ġpo",
        "liacordes"
      ],
      [
        "Ġpla",
        "ning"
      ],
      [
        "Ġpenta",
        "tÃ´nica"
      ],
      [
        "Ġfra",
        "se"
      ],
      [
        "Ġfra",
        "seado"
      ],
      [
        "Ġpoli",
        "rri"
      ],
      [
        "Ġpoli",
        "tonal"
      ],
      [
        "tmi",
        "a"
      ],
      [
        "Ġro",
        "ndÃ³"
      ],
      [
        "Ġdin",
        "Ã¢mica"
      ],
      [
        "Ġapo",
        "jatura"
      ],
      [
        "Ġarra",
        "njo"
      ],
      [
        "Ġoita",
        "vas"
      ],
      [
        "Ġreta",
        "rdo"
      ],
      [
        "Ġsemica",
        "dÃªncia"
      ],
      [
        "Ġsecun",
        "dÃ¡ria"
      ],
      [
        "Ġtessi",
        "tura"
      ],
      [
        "ĠperÃŃ",
        "odo"
      ],
      [
        "Ġclu",
        "sters"
      ],
      [
        "ĠcÃ¢",
        "none"
      ],
      [
        "ĠclÃŃ",
        "max"
      ],
      [
        "ĠoblÃŃ",
        "quo"
      ],
      [
        "Ġclass",
        "es"
      ],
      [
        "ĠautÃª",
        "ntica"
      ],
      [
        "Ġaproxima",
        "Ã§Ã£o"
      ],
      [
        "ĠsÃŃnco",
        "pe"
      ],
      [
        "Ġsubdomina",
        "nte"
      ],
      [
        "ĠsensÃŃ",
        "vel"
      ],
      [
        "Ġpolirri",
        "tmia"
      ],
      [
        "Ġpolitonal",
        "idade"
      ],
      [
        "5",
        "0"
      ],
      [
        "5",
        "6"
      ],
      [
        "5",
        "7"
      ],
      [
        "5",
        "8"
      ],
      [
        "5",
        "9"
      ],
      [
        "6",
        "0"
      ],
      [
        "6",
        "7"
      ],
      [
        "6",
        "8"
      ],
      [
        "6",
        "9"
      ],
      [
        "7",
        "0"
      ],
      [
        "7",
        "8"
      ],
      [
        "7",
        "9"
      ],
      [
        "8",
        "0"
      ],
      [
        "8",
        "9"
      ],
      [
        "9",
        "0"
      ],
      [
        "2",
        "2"
      ],
      [
        "3",
        "3"
      ],
      [
        "4",
        "4"
      ],
      [
        "5",
        "5"
      ],
      [
        "6",
        "6"
      ],
      [
        "7",
        "7"
      ],
      [
        "8",
        "8"
      ],
      [
        "9",
        "9"
      ],
      [
        "la",
        "ves"
      ],
      [
        "Ã©",
        "rie"
      ],
      [
        "Ã©tri",
        "ca"
      ],
      [
        "or",
        "ma"
      ],
      [
        "C",
        "a"
      ],
      [
        "F",
        "ra"
      ],
      [
        "F",
        "unÃ§Ã£o"
      ],
      [
        "F",
        "orma"
      ],
      [
        "M",
        "o"
      ],
      [
        "T",
        "rÃŃade"
      ],
      [
        "a",
        "usas"
      ],
      [
        "f",
        "unÃ§Ã£o"
      ],
      [
        "n",
        "tra"
      ],
      [
        "n",
        "sonÃ¢ncia"
      ],
      [
        "t",
        "rÃŃade"
      ],
      [
        "u",
        "spensÃ£o"
      ],
      [
        "ca",
        "dÃªncia"
      ],
      [
        "la",
        "ning"
      ],
      [
        "sc",
        "uta"
      ],
      [
        "Ã©",
        "tima"
      ],
      [
        "si",
        "tura"
      ],
      [
        "rva",
        "lo"
      ],
      [
        "envol",
        "vimento"
      ],
      [
        "for",
        "ma"
      ],
      [
        "Ca",
        "dÃªncia"
      ],
      [
        "ntra",
        "tempo"
      ],
      [
        "2",
        "1"
      ],
      [
        "4",
        "3"
      ],
      [
        "6",
        "5"
      ],
      [
        "8",
        "7"
      ],
      [
        "9",
        "7"
      ],
      [
        "9",
        "8"
      ],
      [
        "3",
        "1"
      ],
      [
        "3",
        "2"
      ],
      [
        "4",
        "1"
      ],
      [
        "4",
        "2"
      ],
      [
        "7",
        "5"
      ],
      [
        "7",
        "6"
      ],
      [
        "8",
        "5"
      ],
      [
        "8",
        "6"
      ],
      [
        "9",
        "5"
      ],
      [
        "9",
        "6"
      ],
      [
        "12",
        "0"
      ],
      [
        "10",
        "0"
      ],
      [
        "13",
        "0"
      ],
      [
        "14",
        "0"
      ],
      [
        "15",
        "0"
      ],
      [
        "16",
        "0"
      ],
      [
        "17",
        "0"
      ],
      [
        "1",
        "12"
      ],
      [
        "1",
        "10"
      ],
      [
        "1",
        "13"
      ],
      [
        "1",
        "14"
      ],
      [
        "1",
        "15"
      ],
      [
        "1",
        "16"
      ],
      [
        "1",
        "17"
      ],
      [
        "C",
        "laves"
      ],
      [
        "L",
        "ig"
      ],
      [
        "M",
        "Ã©trica"
      ],
      [
        "S",
        "o"
      ],
      [
        "S",
        "Ã©rie"
      ],
      [
        "T",
        "ra"
      ],
      [
        "a",
        "dura"
      ],
      [
        "c",
        "laves"
      ],
      [
        "m",
        "Ã©trica"
      ],
      [
        "s",
        "Ã©rie"
      ],
      [
        "so",
        "m"
      ],
      [
        "Lig",
        "adura"
      ],
      [
        "So",
        "m"
      ],
      [
        "Tra",
        "ns"
      ],
      [
        "5",
        "1"
      ],
      [
        "5",
        "2"
      ],
      [
        "5",
        "3"
      ],
      [
        "5",
        "4"
      ],
      [
        "6",
        "1"
      ],
      [
        "6",
        "2"
      ],
      [
        "6",
        "3"
      ],
      [
        "6",
        "4"
      ],
      [
        "7",
        "1"
      ],
      [
        "7",
        "2"
      ],
      [
        "7",
        "3"
      ],
      [
        "7",
        "4"
      ],
      [
        "8",
        "1"
      ],
      [
        "8",
        "2"
      ],
      [
        "8",
        "3"
      ],
      [
        "8",
        "4"
      ],
      [
        "9",
        "1"
      ],
      [
        "9",
        "2"
      ],
      [
        "9",
        "3"
      ],
      [
        "9",
        "4"
      ],
      [
        "A",
        "corde"
      ],
      [
        "A",
        "cordes"
      ],
      [
        "A",
        "rticulaÃ§Ã£o"
      ],
      [
        "A",
        "finaÃ§Ã£o"
      ],
      [
        "A",
        "mplitude"
      ],
      [
        "A",
        "ntecipaÃ§Ã£o"
      ],
      [
        "C",
        "i"
      ],
      [
        "D",
        "o"
      ],
      [
        "D",
        "es"
      ],
      [
        "D",
        "ita"
      ],
      [
        "E",
        "mp"
      ],
      [
        "E",
        "scuta"
      ],
      [
        "F",
        "uga"
      ],
      [
        "H",
        "emiola"
      ],
      [
        "I",
        "nte"
      ],
      [
        "I",
        "mitaÃ§Ã£o"
      ],
      [
        "M",
        "elo"
      ],
      [
        "O",
        "rque"
      ],
      [
        "P",
        "o"
      ],
      [
        "P",
        "ulso"
      ],
      [
        "P",
        "ausas"
      ],
      [
        "P",
        "laning"
      ],
      [
        "S",
        "entenÃ§a"
      ],
      [
        "S",
        "uspensÃ£o"
      ],
      [
        "S",
        "Ã©tima"
      ],
      [
        "T",
        "es"
      ],
      [
        "T",
        "on"
      ],
      [
        "a",
        "corde"
      ],
      [
        "a",
        "cordes"
      ],
      [
        "a",
        "finaÃ§Ã£o"
      ],
      [
        "a",
        "mplitude"
      ],
      [
        "a",
        "ntecipaÃ§Ã£o"
      ],
      [
        "e",
        "scuta"
      ],
      [
        "f",
        "uga"
      ],
      [
        "h",
        "emiola"
      ],
      [
        "i",
        "mitaÃ§Ã£o"
      ],
      [
        "p",
        "ulso"
      ],
      [
        "p",
        "ausas"
      ],
      [
        "p",
        "laning"
      ],
      [
        "s",
        "entenÃ§a"
      ],
      [
        "s",
        "uspensÃ£o"
      ],
      [
        "s",
        "Ã©tima"
      ],
      [
        "s",
        "envolvimento"
      ],
      [
        "co",
        "mp"
      ],
      [
        "co",
        "nsonÃ¢ncia"
      ],
      [
        "co",
        "ntratempo"
      ],
      [
        "te",
        "rvalo"
      ],
      [
        "do",
        "bramento"
      ],
      [
        "to",
        "nicizaÃ§Ã£o"
      ],
      [
        "in",
        "tervalo"
      ],
      [
        "qu",
        "intas"
      ],
      [
        "ti",
        "culaÃ§Ã£o"
      ],
      [
        "de",
        "senvolvimento"
      ],
      [
        "po",
        "liacordes"
      ],
      [
        "di",
        "tado"
      ],
      [
        "me",
        "lodia"
      ],
      [
        "Co",
        "nsonÃ¢ncia"
      ],
      [
        "Co",
        "ntratempo"
      ],
      [
        "emp",
        "rÃ©stimo"
      ],
      [
        "ar",
        "ticulaÃ§Ã£o"
      ],
      [
        "Qu",
        "intas"
      ],
      [
        "mo",
        "dos"
      ],
      [
        "mo",
        "vimento"
      ],
      [
        "trans",
        "posiÃ§Ã£o"
      ],
      [
        "Comp",
        "asso"
      ],
      [
        "tes",
        "situra"
      ],
      [
        "fra",
        "se"
      ],
      [
        "fra",
        "seado"
      ],
      [
        "Nota",
        "s"
      ],
      [
        "nota",
        "s"
      ],
      [
        "Fra",
        "se"
      ],
      [
        "Fra",
        "seado"
      ],
      [
        "Mo",
        "dos"
      ],
      [
        "Mo",
        "vimento"
      ],
      [
        "Trans",
        "posiÃ§Ã£o"
      ],
      [
        "Ci",
        "fras"
      ],
      [
        "Do",
        "bramento"
      ],
      [
        "Des",
        "envolvimento"
      ],
      [
        "Dita",
        "do"
      ],
      [
        "Emp",
        "rÃ©stimo"
      ],
      [
        "Inte",
        "rvalo"
      ],
      [
        "Melo",
        "dia"
      ],
      [
        "Orque",
        "straÃ§Ã£o"
      ],
      [
        "Po",
        "liacordes"
      ],
      [
        "Tes",
        "situra"
      ],
      [
        "Ton",
        "icizaÃ§Ã£o"
      ],
      [
        "comp",
        "asso"
      ],
      [
        "O",
        "R"
      ],
      [
        "U",
        "S"
      ],
      [
        "Ġ",
        "T"
      ]
    ]
  }
}